<unk>	0
<pad>	0
<s>	0
</s>	0
▁the	-3.29161
,	-3.36735
.	-3.43465
s	-3.80768
▁a	-3.84739
▁and	-3.91218
▁of	-3.98922
▁to	-4.05911
'	-4.1154
▁is	-4.27798
br	-4.31241
▁/>	-4.33334
▁in	-4.47404
▁I	-4.54986
▁it	-4.56327
▁that	-4.70516
▁this	-4.81003
<	-4.8747
t	-5.02947
▁was	-5.04838
▁movie	-5.10363
-	-5.10519
▁	-5.11892
▁for	-5.20595
▁with	-5.20884
▁film	-5.23205
▁as	-5.2866
.<	-5.33786
▁but	-5.40008
▁The	-5.40433
▁on	-5.45744
▁you	-5.49444
▁"	-5.50081
▁(	-5.52064
▁are	-5.57902
▁be	-5.61893
▁have	-5.6236
▁not	-5.6256
▁his	-5.6654
"	-5.71107
▁one	-5.72358
▁he	-5.79091
▁all	-5.8674
▁by	-5.88617
▁an	-5.91184
▁at	-5.92616
)	-5.92739
▁who	-5.96146
ing	-5.97435
▁like	-5.97536
▁from	-5.99041
▁they	-6.00313
▁so	-6.04643
▁about	-6.10425
▁her	-6.11244
▁out	-6.11582
▁It	-6.11929
▁just	-6.13766
▁has	-6.14181
▁or	-6.15477
▁good	-6.25025
▁can	-6.26308
▁some	-6.27228
ed	-6.32057
▁more	-6.32089
▁very	-6.3398
!	-6.36758
▁This	-6.38777
d	-6.38926
▁time	-6.41347
▁what	-6.41891
▁would	-6.42901
▁up	-6.42976
▁there	-6.44811
?	-6.47065
ly	-6.47927
▁story	-6.48257
▁really	-6.4923
▁when	-6.49317
▁see	-6.50437
The	-6.50744
▁me	-6.51798
▁only	-6.52807
▁had	-6.5366
▁if	-6.54179
▁she	-6.55485
▁no	-6.55759
▁were	-6.56338
▁even	-6.56653
▁their	-6.5688
▁my	-6.57652
▁which	-6.5922
▁than	-6.67296
▁-	-6.69321
▁much	-6.70001
▁get	-6.7155
...	-6.72242
▁been	-6.73216
:	-6.73859
▁bad	-6.73942
m	-6.74382
I	-6.74914
▁people	-6.75433
▁do	-6.75456
▁other	-6.7593
▁well	-6.75949
▁will	-6.76543
▁great	-6.78222
▁into	-6.78414
▁we	-6.79624
▁because	-6.80531
▁him	-6.82074
▁made	-6.82838
▁make	-6.84985
▁first	-6.85611
▁way	-6.87342
y	-6.87707
▁most	-6.87755
▁could	-6.88615
▁don	-6.91314
▁how	-6.92395
▁also	-6.92628
▁think	-6.93501
▁A	-6.94177
▁them	-6.94202
▁too	-6.94886
▁any	-6.95765
re	-6.9868
▁character	-6.99467
▁characters	-7.0077
▁seen	-7.021
▁watch	-7.02231
▁plot	-7.02669
e	-7.02766
▁movies	-7.03331
▁over	-7.04624
ve	-7.05381
▁acting	-7.06174
▁then	-7.08579
▁But	-7.09312
▁show	-7.09826
▁'	-7.10948
▁many	-7.11264
▁two	-7.11297
▁know	-7.11393
▁being	-7.11567
;	-7.1308
▁never	-7.13394
▁love	-7.13647
er	-7.14035
▁little	-7.14325
▁life	-7.14751
▁best	-7.15663
▁did	-7.1579
▁And	-7.16046
▁ever	-7.17185
▁i	-7.17459
▁after	-7.17697
▁films	-7.18088
▁where	-7.18748
▁better	-7.18845
▁off	-7.20544
▁end	-7.21274
▁your	-7.21374
▁does	-7.22418
▁its	-7.23376
▁say	-7.238
▁<	-7.24006
▁scene	-7.28432
a	-7.28458
▁He	-7.29235
).	-7.29552
▁There	-7.3114
▁still	-7.31718
▁In	-7.31901
▁go	-7.32428
▁should	-7.3342
▁here	-7.33683
▁scenes	-7.33976
▁back	-7.34139
▁man	-7.35857
▁through	-7.3755
▁such	-7.38385
▁something	-7.38675
),	-7.39163
▁thing	-7.41998
▁these	-7.42485
▁watching	-7.42935
▁doesn	-7.44179
▁real	-7.44736
/	-7.44846
▁actors	-7.45507
▁If	-7.45802
▁work	-7.46669
in	-7.46762
▁didn	-7.46965
▁years	-7.47276
▁those	-7.47765
▁funny	-7.4865
ll	-7.50048
▁find	-7.50974
▁few	-7.53038
▁lot	-7.5365
▁old	-7.54643
▁cast	-7.55588
▁look	-7.55598
▁actually	-7.55779
▁going	-7.55913
▁same	-7.56753
and	-7.57026
▁makes	-7.57162
▁part	-7.58329
▁director	-7.59433
▁though	-7.59862
▁before	-7.60167
▁why	-7.60703
▁want	-7.60773
▁nothing	-7.62903
▁while	-7.63115
▁again	-7.63485
▁pretty	-7.65576
▁quite	-7.65766
S	-7.66276
▁another	-7.66483
▁got	-7.66553
▁every	-7.67174
▁fact	-7.67513
▁thought	-7.6756
▁down	-7.68387
n	-7.69126
or	-7.69267
the	-7.69907
▁around	-7.70173
▁seems	-7.70331
▁enough	-7.72403
r	-7.7255
▁things	-7.73224
▁give	-7.73267
▁own	-7.73562
▁young	-7.73699
▁world	-7.74132
A	-7.74177
▁original	-7.74259
▁long	-7.74877
▁take	-7.75012
▁role	-7.76531
▁horror	-7.76774
▁script	-7.77218
▁saw	-7.77227
▁between	-7.77368
▁action	-7.77637
▁right	-7.77775
▁series	-7.78178
▁bit	-7.78395
▁now	-7.78407
▁must	-7.79006
▁interesting	-7.79262
▁always	-7.80298
▁&	-7.80605
▁new	-7.80685
▁least	-7.81255
▁us	-7.81323
▁point	-7.81601
▁whole	-7.81769
▁comedy	-7.82006
▁isn	-7.82054
▁may	-7.82645
▁come	-7.83365
▁family	-7.83508
▁far	-7.83645
▁done	-7.84474
o	-7.84673
▁feel	-7.84835
▁big	-7.8567
▁gets	-7.85744
▁without	-7.86146
▁minutes	-7.86427
▁performance	-7.86682
▁music	-7.87347
▁almost	-7.87385
▁times	-7.87422
▁both	-7.87925
▁guy	-7.87988
es	-7.88447
▁They	-7.88449
▁might	-7.8869
▁You	-7.88729
▁anything	-7.88834
▁kind	-7.89409
▁fun	-7.92414
▁last	-7.93313
▁am	-7.93703
▁She	-7.9408
This	-7.95671
▁girl	-7.96048
▁TV	-7.97111
al	-7.9716
▁found	-7.97344
▁worst	-7.97825
▁probably	-7.98174
▁What	-7.99471
▁away	-7.9975
▁woman	-7.99843
▁As	-8.00097
▁since	-8.0047
▁B	-8.0051
--	-8.01073
▁hard	-8.01397
▁rather	-8.01688
▁making	-8.01879
▁believe	-8.02176
▁DVD	-8.05869
▁reason	-8.06031
▁ending	-8.06068
▁course	-8.06128
i	-8.0624
▁trying	-8.06774
▁anyone	-8.06895
▁That	-8.07469
▁screen	-8.07649
▁So	-8.07686
▁money	-8.08164
▁book	-8.08302
▁put	-8.08318
▁each	-8.08728
▁different	-8.08769
▁goes	-8.09047
▁set	-8.09304
▁actor	-8.09506
▁wasn	-8.09632
▁watched	-8.09673
▁sure	-8.10383
▁sense	-8.10493
▁comes	-8.1064
▁day	-8.1071
▁place	-8.10741
▁job	-8.10976
on	-8.10981
▁played	-8.11599
▁seem	-8.12894
▁worth	-8.13119
▁main	-8.13258
It	-8.13267
▁our	-8.13428
▁looks	-8.13764
▁play	-8.14479
c	-8.14892
▁S	-8.15324
(	-8.15364
▁yet	-8.1581
▁effects	-8.16484
g	-8.165
▁plays	-8.16761
▁true	-8.17435
▁audience	-8.17705
▁together	-8.17742
▁version	-8.17827
▁When	-8.17878
▁fan	-8.18635
▁shows	-8.18807
▁having	-8.1884
▁looking	-8.18848
▁someone	-8.19098
▁special	-8.19683
▁said	-8.19969
▁idea	-8.20662
▁especially	-8.21113
▁beautiful	-8.21631
it	-8.22085
▁re	-8.22573
",	-8.23287
▁half	-8.23839
▁2	-8.23965
▁We	-8.24073
▁wife	-8.24295
▁year	-8.24457
▁else	-8.24599
▁himself	-8.24608
▁takes	-8.24646
▁father	-8.24672
▁10	-8.24826
▁John	-8.24894
▁excellent	-8.24896
▁seeing	-8.25056
▁three	-8.2566
▁left	-8.25771
man	-8.26362
▁American	-8.26417
l	-8.26684
▁read	-8.26762
th	-8.26908
▁mind	-8.2715
▁un	-8.27239
▁shot	-8.27849
▁enjoy	-8.27912
▁high	-8.28309
▁short	-8.28669
▁everything	-8.28837
▁nice	-8.29151
▁Not	-8.29582
▁everyone	-8.29662
▁later	-8.30492
▁during	-8.31154
▁help	-8.31168
▁once	-8.31904
▁For	-8.31951
▁C	-8.32319
▁need	-8.32347
▁completely	-8.3254
▁rest	-8.32636
▁recommend	-8.33272
".	-8.33529
▁camera	-8.34137
as	-8.34359
▁home	-8.34365
▁simply	-8.34566
▁low	-8.34944
▁less	-8.35001
▁Hollywood	-8.35021
▁boring	-8.35373
▁poor	-8.35464
▁used	-8.35552
▁wrong	-8.36168
▁second	-8.36215
▁One	-8.36326
▁try	-8.36515
ic	-8.3668
C	-8.36864
▁line	-8.36896
▁classic	-8.36913
T	-8.3706
▁tell	-8.37295
▁start	-8.37689
▁couple	-8.37814
▁performances	-8.37988
▁understand	-8.38026
▁However	-8.3807
▁kids	-8.38078
▁mean	-8.38355
▁either	-8.38746
▁use	-8.38813
▁let	-8.38957
▁production	-8.39924
▁remember	-8.40687
▁stupid	-8.4071
ness	-8.40739
▁No	-8.40772
▁My	-8.40846
▁awful	-8.40997
b	-8.41597
▁night	-8.41876
▁episode	-8.41933
▁won	-8.4197
D	-8.42045
▁person	-8.42083
▁given	-8.4232
▁women	-8.42629
▁truly	-8.43148
▁All	-8.43237
▁came	-8.43292
▁friends	-8.4367
▁sex	-8.44125
▁until	-8.44402
▁school	-8.44663
▁along	-8.44665
▁dialogue	-8.4489
▁moments	-8.45315
▁death	-8.4537
B	-8.46185
▁house	-8.46236
▁--	-8.46393
▁budget	-8.46803
an	-8.46934
▁small	-8.47001
ers	-8.47025
▁instead	-8.47121
▁black	-8.47157
▁video	-8.4723
▁keep	-8.47256
▁terrible	-8.47354
p	-8.47638
▁men	-8.47705
▁wonderful	-8.47837
▁top	-8.47966
▁waste	-8.48352
▁piece	-8.48747
▁full	-8.488
▁getting	-8.49542
▁F	-8.49797
▁doing	-8.4985
▁under	-8.50257
▁To	-8.50831
▁head	-8.50907
up	-8.50999
▁stars	-8.51104
▁human	-8.51258
▁liked	-8.51342
▁playing	-8.5198
▁perfect	-8.5225
."	-8.52322
to	-8.52992
▁face	-8.5301
▁name	-8.53065
▁lines	-8.53071
▁itself	-8.53274
▁style	-8.53562
▁felt	-8.5371
k	-8.53732
▁couldn	-8.53744
▁next	-8.53941
▁supposed	-8.54268
▁3	-8.54575
▁live	-8.54747
▁sort	-8.55135
▁entertaining	-8.55383
▁case	-8.55675
▁early	-8.55682
▁however	-8.55776
▁laugh	-8.55809
▁gives	-8.55838
▁war	-8.55867
P	-8.55888
▁become	-8.55962
le	-8.56295
▁T	-8.56338
▁often	-8.56518
▁went	-8.57042
▁children	-8.57103
▁star	-8.5786
▁title	-8.5799
▁absolutely	-8.58118
▁worse	-8.58319
▁direction	-8.58795
▁Even	-8.58892
▁definitely	-8.58952
▁picture	-8.5916
▁maybe	-8.59627
u	-8.59661
▁mother	-8.59677
▁entire	-8.59786
▁friend	-8.60561
▁beginning	-8.60662
▁Well	-8.60916
▁written	-8.60984
▁problem	-8.61005
▁cinema	-8.613
en	-8.6136
▁car	-8.61518
▁seemed	-8.61986
▁fine	-8.62352
▁drama	-8.62367
▁O	-8.62635
▁At	-8.62641
▁care	-8.6265
▁THE	-8.62781
▁humor	-8.63311
▁lead	-8.63357
▁loved	-8.63586
▁against	-8.6375
▁hope	-8.64122
▁boy	-8.64711
▁E	-8.65575
▁heart	-8.65781
▁After	-8.65786
▁example	-8.66175
▁several	-8.66354
▁Mr	-8.66378
▁turn	-8.66604
▁past	-8.66683
▁certainly	-8.66693
▁already	-8.66942
▁writing	-8.67056
▁wanted	-8.67545
▁although	-8.67653
▁flick	-8.67979
▁others	-8.68145
▁sound	-8.68275
▁lives	-8.68506
In	-8.68508
▁enjoyed	-8.68738
▁quality	-8.68839
▁guess	-8.6898
▁G	-8.69335
h	-8.69541
▁side	-8.69679
▁fans	-8.70309
▁totally	-8.70445
▁becomes	-8.70557
▁favorite	-8.7081
▁viewer	-8.7087
▁lost	-8.70913
▁His	-8.71216
▁expect	-8.71502
▁gave	-8.71861
▁tries	-8.71864
▁killer	-8.72153
▁based	-8.72199
▁amazing	-8.7224
▁New	-8.72616
▁close	-8.72785
▁hand	-8.72871
▁Don	-8.72966
▁D	-8.73266
▁throughout	-8.737
▁dead	-8.73725
▁son	-8.73843
▁child	-8.73847
▁called	-8.73868
▁stuff	-8.7437
▁1	-8.74394
▁today	-8.74803
▁genre	-8.75892
▁game	-8.75964
M	-8.76034
▁act	-8.76277
▁history	-8.76293
▁town	-8.763
▁able	-8.76589
▁etc	-8.76655
▁slow	-8.76989
▁art	-8.77041
is	-8.77168
▁guys	-8.77449
▁horrible	-8.78352
▁works	-8.78694
ie	-8.79056
▁late	-8.79306
▁myself	-8.7931
K	-8.79344
If	-8.79361
▁Michael	-8.79473
▁voice	-8.79915
▁finally	-8.79921
▁decent	-8.79977
el	-8.80176
▁wants	-8.80184
▁feeling	-8.8024
▁thinking	-8.80355
▁Also	-8.80584
▁de	-8.80887
▁evil	-8.80972
▁run	-8.80985
▁kid	-8.81252
There	-8.81252
▁self	-8.81367
▁themselves	-8.81414
▁behind	-8.81618
▁days	-8.81787
but	-8.82026
▁How	-8.82493
▁starts	-8.82604
▁white	-8.82645
▁With	-8.82652
ion	-8.82804
▁matter	-8.8298
▁final	-8.8311
▁turns	-8.83301
G	-8.83354
able	-8.83379
▁actress	-8.83459
▁dark	-8.83488
▁parts	-8.83995
▁stories	-8.84178
▁Why	-8.84589
▁heard	-8.84629
▁brilliant	-8.84944
▁crap	-8.85129
▁hour	-8.85168
▁interest	-8.8517
at	-8.85648
R	-8.861
▁opinion	-8.86403
▁fight	-8.86426
▁daughter	-8.8649
▁type	-8.86633
▁involved	-8.86942
▁hit	-8.86959
▁Some	-8.87048
▁directed	-8.87223
▁experience	-8.87253
▁lack	-8.87303
▁moment	-8.87398
▁Then	-8.87428
▁cannot	-8.87457
▁happen	-8.87494
▁While	-8.87679
▁killed	-8.87712
▁eyes	-8.87778
▁took	-8.88116
▁kill	-8.88293
▁chance	-8.88374
▁ago	-8.88418
▁girls	-8.88707
out	-8.88746
!<	-8.88931
▁Man	-8.89083
▁happened	-8.89386
▁group	-8.89455
▁bring	-8.89474
▁roles	-8.89663
▁Of	-8.89682
▁wouldn	-8.89812
E	-8.90083
▁attempt	-8.90181
▁husband	-8.9049
▁annoying	-8.90605
▁happens	-8.90609
▁obvious	-8.90865
▁score	-8.90881
▁4	-8.91263
▁perhaps	-8.91374
▁wonder	-8.91396
▁sad	-8.91401
▁P	-8.91404
▁wish	-8.91667
ra	-8.91768
▁extremely	-8.92243
▁career	-8.92283
!!	-8.92526
▁strong	-8.92613
▁told	-8.92745
▁violence	-8.92753
▁looked	-8.92787
▁complete	-8.93023
▁soon	-8.93028
▁brother	-8.9328
▁R	-8.93674
▁simple	-8.93678
like	-8.93793
▁highly	-8.93907
ist	-8.9404
L	-8.94222
F	-8.94564
▁5	-8.94642
▁light	-8.94788
▁co	-8.95228
la	-8.95264
▁leave	-8.95327
▁yourself	-8.95397
il	-8.95444
▁Just	-8.95641
▁sometimes	-8.9566
ro	-8.95873
ity	-8.96029
▁coming	-8.96414
But	-8.96419
▁musical	-8.96542
▁cut	-8.97099
▁shown	-8.97147
▁female	-8.97437
▁cinematography	-8.97538
▁stop	-8.97701
▁James	-8.97711
▁writer	-8.97783
▁ridiculous	-8.98078
ri	-8.98127
▁age	-8.98261
▁disappointed	-8.98483
▁number	-8.98583
us	-8.98669
▁hilarious	-8.98895
▁started	-8.98914
▁usual	-8.99123
O	-8.99195
▁song	-8.99383
▁jokes	-8.9955
▁novel	-8.99645
▁released	-8.99772
ment	-8.99776
▁obviously	-8.998
And	-8.99888
▁relationship	-9.00003
ul	-9.00125
▁gore	-9.00148
ting	-9.00323
▁local	-9.00396
▁particularly	-9.00486
▁serious	-9.00522
▁cool	-9.00593
ch	-9.00676
▁huge	-9.00797
▁cheap	-9.01032
▁change	-9.01299
▁possible	-9.01395
▁somewhat	-9.01451
▁English	-9.01525
▁attention	-9.01649
▁murder	-9.01834
▁known	-9.02019
▁taken	-9.02021
▁hours	-9.02073
▁Now	-9.02307
▁call	-9.02372
▁level	-9.02454
▁talent	-9.02463
*	-9.02876
lo	-9.03012
▁alone	-9.03184
f	-9.03264
▁David	-9.03511
ton	-9.03811
▁view	-9.03817
un	-9.039
▁word	-9.03966
▁exactly	-9.04066
▁single	-9.04292
no	-9.04392
▁body	-9.04814
▁save	-9.04915
▁episodes	-9.04954
▁W	-9.05276
▁saying	-9.05334
!!!	-9.05554
▁non	-9.05696
▁blood	-9.05724
▁documentary	-9.06039
▁across	-9.06047
▁police	-9.0611
▁knew	-9.0613
▁says	-9.06334
less	-9.06398
▁order	-9.06663
▁talking	-9.06753
▁ten	-9.06777
N	-9.07017
ies	-9.07047
▁turned	-9.07052
▁running	-9.07158
▁doubt	-9.07281
▁opening	-9.07313
▁mention	-9.07462
▁predictable	-9.0752
▁whose	-9.07761
▁television	-9.07775
▁romantic	-9.07911
!"	-9.07924
▁except	-9.07994
▁songs	-9.08003
▁due	-9.08113
▁reality	-9.08232
▁important	-9.08267
▁silly	-9.08271
W	-9.08327
▁usually	-9.08333
▁20	-9.08388
▁British	-9.08412
▁living	-9.08419
▁shots	-9.08471
▁enjoyable	-9.08558
▁De	-9.0879
▁scary	-9.0894
▁strange	-9.08968
▁comic	-9.09037
▁future	-9.09037
▁Oscar	-9.09044
ty	-9.09047
▁Robert	-9.09095
▁!	-9.09295
ur	-9.09569
▁events	-9.09582
▁dull	-9.09692
▁middle	-9.09947
ation	-9.10043
fi	-9.1034
▁modern	-9.10512
▁aren	-9.10668
▁near	-9.10822
▁supporting	-9.10843
which	-9.10905
▁fast	-9.10945
▁team	-9.11021
▁Her	-9.11111
▁despite	-9.11147
▁hell	-9.11272
who	-9.11498
▁sequel	-9.11546
he	-9.11559
▁country	-9.11648
▁stand	-9.11701
▁similar	-9.11742
▁OK	-9.11775
▁entertainment	-9.12052
▁major	-9.12284
▁storyline	-9.12376
▁hero	-9.1254
▁happy	-9.12602
▁L	-9.12674
▁seriously	-9.12887
▁review	-9.12914
ter	-9.12917
▁animation	-9.13096
▁including	-9.13238
▁George	-9.13291
▁hear	-9.13363
▁thriller	-9.13407
▁taking	-9.13416
▁H	-9.13452
▁easily	-9.13497
▁sequence	-9.14004
▁On	-9.1401
▁surprised	-9.14041
▁dialog	-9.1441
one	-9.14652
ar	-9.14656
▁problems	-9.14671
▁room	-9.14804
▁material	-9.14856
▁message	-9.14856
be	-9.15327
▁clear	-9.15528
▁finds	-9.15788
▁God	-9.15848
▁effort	-9.15931
▁among	-9.15966
▁clich	-9.16065
de	-9.16108
▁power	-9.16198
▁haven	-9.16199
te	-9.16329
▁clearly	-9.16509
▁rating	-9.16582
▁ends	-9.16808
▁falls	-9.16859
▁Although	-9.17041
▁mostly	-9.17213
▁subject	-9.17215
▁tells	-9.17478
▁words	-9.17751
▁bunch	-9.17885
▁weak	-9.17972
▁soundtrack	-9.18166
▁fall	-9.18304
▁buy	-9.18333
▁giving	-9.18352
▁moving	-9.18648
▁lame	-9.18829
▁Paul	-9.18895
▁above	-9.19013
▁straight	-9.19034
▁An	-9.19034
▁sets	-9.19356
est	-9.19456
▁Dr	-9.19473
▁York	-9.19551
▁fantastic	-9.19573
▁period	-9.19597
▁Richard	-9.19602
▁stage	-9.19657
▁decided	-9.19696
▁follow	-9.19944
▁appears	-9.20151
2	-9.20245
▁eye	-9.20302
▁needs	-9.20412
▁four	-9.20438
ism	-9.20466
3	-9.20489
▁talk	-9.20494
▁sister	-9.20548
▁none	-9.20728
▁comments	-9.20802
▁beyond	-9.20878
▁Jack	-9.20976
▁actual	-9.20999
▁hate	-9.21093
H	-9.21113
▁viewing	-9.21297
▁First	-9.21486
▁theme	-9.21723
▁theater	-9.21737
▁Peter	-9.21826
▁premise	-9.21888
▁release	-9.22188
▁M	-9.2221
▁editing	-9.22226
▁add	-9.22364
▁kept	-9.22767
son	-9.22863
▁form	-9.22866
if	-9.22874
▁...	-9.22915
ian	-9.22927
▁certain	-9.22932
▁overall	-9.22995
▁King	-9.23347
▁class	-9.23396
of	-9.23479
What	-9.23495
▁tale	-9.23722
▁feature	-9.23841
▁famous	-9.23972
▁working	-9.2399
ir	-9.23994
ish	-9.24108
ine	-9.24121
▁sit	-9.24195
▁easy	-9.24412
▁five	-9.24465
▁tried	-9.24699
ge	-9.24718
▁typical	-9.24885
As	-9.2499
▁Disney	-9.25177
na	-9.25215
▁Lee	-9.25263
▁nearly	-9.25326
z	-9.25448
▁herself	-9.25486
▁atmosphere	-9.25603
▁elements	-9.25743
▁figure	-9.25848
▁learn	-9.25857
▁Maybe	-9.25864
▁realistic	-9.25957
▁reviews	-9.26133
▁J	-9.26266
▁showing	-9.26435
▁America	-9.26515
▁named	-9.26593
▁mess	-9.26788
▁parents	-9.26988
ne	-9.27003
▁upon	-9.27179
▁viewers	-9.27294
Y	-9.27395
not	-9.27574
▁average	-9.27618
▁crime	-9.27738
▁stay	-9.27775
▁Tom	-9.27815
▁poorly	-9.27821
co	-9.27892
▁particular	-9.27902
▁K	-9.2804
▁free	-9.28096
for	-9.28152
▁move	-9.28203
▁brought	-9.28366
▁within	-9.28469
▁Oh	-9.2848
ent	-9.28539
▁admit	-9.28669
▁points	-9.28692
▁deal	-9.28793
▁believable	-9.28853
▁greatest	-9.28962
ce	-9.29012
So	-9.29284
▁using	-9.29568
?"	-9.29701
▁leads	-9.30095
▁begins	-9.3011
ant	-9.30578
▁suspense	-9.30881
so	-9.30923
▁spend	-9.30953
▁weird	-9.30957
▁knows	-9.30986
ling	-9.31037
▁season	-9.31083
▁Unfortunately	-9.31156
▁basically	-9.31373
▁anyway	-9.31439
▁expected	-9.31548
▁feels	-9.31552
▁sequences	-9.3158
▁surprise	-9.31599
▁question	-9.31634
!)	-9.31659
V	-9.31761
ry	-9.31886
▁Who	-9.31939
▁wait	-9.31959
▁city	-9.32073
me	-9.32075
U	-9.32089
▁War	-9.32136
▁romance	-9.32195
▁means	-9.32294
▁rent	-9.32294
▁NOT	-9.32526
▁write	-9.32544
▁comment	-9.32794
▁male	-9.33051
▁realize	-9.33096
▁die	-9.33117
▁killing	-9.33136
▁mystery	-9.33173
▁dance	-9.33263
▁became	-9.33475
▁truth	-9.33587
▁superb	-9.33758
▁forget	-9.33796
▁difficult	-9.33852
▁screenplay	-9.33976
li	-9.34011
▁whether	-9.34133
▁sexual	-9.34184
▁ex	-9.34378
▁Do	-9.34493
▁situation	-9.34583
▁U	-9.34593
▁forward	-9.34764
▁development	-9.34971
▁*	-9.35245
▁French	-9.35289
▁joke	-9.35488
▁nature	-9.35581
time	-9.35758
1	-9.35871
am	-9.35891
▁begin	-9.35953
▁reading	-9.36553
▁pay	-9.3658
▁imagine	-9.36655
▁minute	-9.36759
▁unique	-9.36978
▁Yes	-9.37228
v	-9.37418
▁dream	-9.37628
▁needed	-9.37655
um	-9.37715
▁possibly	-9.37854
ma	-9.37857
▁gone	-9.37999
▁check	-9.38136
▁third	-9.3817
▁Or	-9.38171
ful	-9.38416
▁interested	-9.38474
▁flat	-9.38518
My	-9.38519
▁break	-9.3853
▁result	-9.3864
▁remake	-9.38692
▁Japanese	-9.38882
▁badly	-9.38941
▁apparently	-9.39136
▁Like	-9.39146
▁8	-9.39206
▁filmed	-9.39228
x	-9.39528
▁From	-9.3955
▁girlfriend	-9.39772
▁credits	-9.39817
▁please	-9.40135
▁Ben	-9.40177
▁forced	-9.40186
▁copy	-9.40191
▁bar	-9.40243
▁memorable	-9.40251
▁laughs	-9.40279
se	-9.40309
mo	-9.40339
▁open	-9.40348
▁footage	-9.4043
▁somehow	-9.40492
▁agree	-9.40871
▁creepy	-9.40978
▁effect	-9.41405
▁directing	-9.41453
▁earlier	-9.41486
▁older	-9.41639
▁cheesy	-9.41664
▁cop	-9.41691
w	-9.41854
▁leaves	-9.41959
▁dumb	-9.42126
▁shame	-9.4223
▁ask	-9.42309
▁box	-9.42498
▁air	-9.42543
▁previous	-9.42583
▁hot	-9.42662
▁setting	-9.42929
▁Me	-9.43121
age	-9.4324
▁ways	-9.43284
▁general	-9.43319
▁meet	-9.43325
▁keeps	-9.43406
▁background	-9.43437
▁emotional	-9.43535
▁incredibly	-9.43639
go	-9.43661
▁present	-9.43782
▁business	-9.43995
▁worked	-9.44012
▁Christmas	-9.44023
ke	-9.44082
▁villain	-9.44147
▁dramatic	-9.44251
▁gay	-9.44369
▁success	-9.44479
by	-9.44516
▁fails	-9.44617
▁quickly	-9.44634
▁Most	-9.44686
")	-9.44686
▁appear	-9.44878
▁plain	-9.44948
▁IMDb	-9.45108
▁space	-9.45164
▁These	-9.45177
▁features	-9.4526
▁meets	-9.4532
▁powerful	-9.45426
▁expecting	-9.45446
do	-9.45646
▁front	-9.45666
▁create	-9.45721
▁potential	-9.45871
ally	-9.45921
▁miss	-9.46035
▁nor	-9.46227
▁masterpiece	-9.46274
▁twist	-9.46325
▁deep	-9.46367
▁cute	-9.46448
old	-9.4649
▁writers	-9.4663
▁pre	-9.46651
▁b	-9.46651
▁era	-9.46666
▁society	-9.46782
▁Bo	-9.46875
▁casting	-9.47178
ous	-9.47247
All	-9.47459
ted	-9.47508
▁perfectly	-9.4754
▁plenty	-9.47543
▁Re	-9.47585
▁acted	-9.47638
▁water	-9.47772
▁30	-9.47877
▁total	-9.48065
▁personal	-9.48071
▁Scott	-9.48111
▁talented	-9.4818
▁portrayed	-9.48181
▁concept	-9.48242
▁deserves	-9.48478
▁public	-9.48873
▁portrayal	-9.49056
▁leading	-9.49063
▁brings	-9.49208
ia	-9.49222
▁meant	-9.49283
▁lots	-9.49729
▁Jane	-9.49908
▁Go	-9.50341
▁eventually	-9.50405
▁social	-9.50681
▁rich	-9.50769
▁list	-9.50856
▁fairly	-9.50884
▁nudity	-9.50973
▁fire	-9.51109
▁beauty	-9.51569
▁pace	-9.51789
▁wasted	-9.51802
▁whom	-9.51811
▁cartoon	-9.51925
▁Joe	-9.52141
▁Italian	-9.52169
▁recently	-9.52484
▁towards	-9.52548
ol	-9.52591
▁missing	-9.52622
▁hair	-9.52625
ach	-9.52898
▁hold	-9.52935
▁various	-9.52943
▁gun	-9.5297
▁positive	-9.52989
ley	-9.52989
▁sorry	-9.53062
▁speak	-9.53109
▁Good	-9.53206
▁fantasy	-9.5337
▁married	-9.53384
▁Al	-9.53494
▁7	-9.53555
▁William	-9.53568
4	-9.53594
▁hands	-9.53686
vi	-9.53772
▁sub	-9.53943
▁indeed	-9.53946
▁hardly	-9.54043
▁missed	-9.5414
▁lady	-9.54155
▁cover	-9.54176
▁laughing	-9.54218
▁manages	-9.54235
▁fighting	-9.54283
ta	-9.54327
▁value	-9.54396
▁odd	-9.54513
▁Here	-9.54576
ive	-9.54709
▁US	-9.54773
▁clever	-9.54823
sh	-9.54882
▁doctor	-9.54967
▁appreciate	-9.54992
▁bored	-9.55009
off	-9.55164
▁political	-9.55262
im	-9.55268
▁crew	-9.55418
▁telling	-9.55433
▁Bill	-9.55435
▁St	-9.55571
▁crazy	-9.55594
▁rate	-9.55743
▁respect	-9.55762
▁amusing	-9.55776
▁dog	-9.55867
▁pure	-9.56043
▁post	-9.56202
▁note	-9.56315
▁inside	-9.56395
▁rock	-9.56412
▁wrote	-9.56436
▁trash	-9.56522
▁sounds	-9.56691
▁attempts	-9.56732
▁directors	-9.56782
▁tension	-9.56799
▁spent	-9.568
▁monster	-9.56937
▁waiting	-9.56967
▁caught	-9.57005
ad	-9.5726
ha	-9.5727
▁members	-9.57288
▁choice	-9.57299
▁sick	-9.57404
?)	-9.57463
▁mentioned	-9.57531
▁appeal	-9.57583
land	-9.57619
▁adult	-9.57689
▁avoid	-9.57696
▁solid	-9.57838
▁battle	-9.57861
▁By	-9.57917
et	-9.57952
▁Great	-9.57956
▁credit	-9.57999
You	-9.58023
▁intelligent	-9.58135
▁store	-9.58232
ever	-9.58256
▁consider	-9.58408
▁yes	-9.58466
▁win	-9.58794
▁convincing	-9.58954
▁reasons	-9.59068
▁pointless	-9.59103
▁6	-9.59195
▁Star	-9.5921
em	-9.59281
ner	-9.5939
ized	-9.59454
▁ended	-9.59602
▁super	-9.5965
▁familiar	-9.59739
this	-9.59861
▁visual	-9.59944
▁sweet	-9.60168
▁depth	-9.60196
▁popular	-9.60365
▁filmmakers	-9.60368
▁Film	-9.60375
▁outside	-9.60406
▁slightly	-9.60415
▁World	-9.60614
▁trouble	-9.61132
▁decides	-9.61163
▁conclusion	-9.61238
▁former	-9.61487
....	-9.61554
▁La	-9.61623
▁incredible	-9.61671
▁control	-9.61703
▁whatever	-9.61884
▁large	-9.6192
with	-9.61954
▁fear	-9.62308
▁language	-9.62348
▁culture	-9.62398
▁accent	-9.62534
▁computer	-9.62563
▁moves	-9.62579
▁ideas	-9.62623
▁further	-9.62761
▁awesome	-9.62764
5	-9.62824
▁effective	-9.62838
▁amount	-9.62984
▁impressive	-9.62985
▁15	-9.63041
▁created	-9.63183
▁bizarre	-9.63203
▁exciting	-9.63204
▁match	-9.63205
▁unfortunately	-9.63293
▁e	-9.63301
▁tough	-9.63401
▁common	-9.63438
▁fit	-9.6347
▁V	-9.63554
▁disturbing	-9.63676
ial	-9.63828
▁c	-9.6393
▁band	-9.64139
▁Instead	-9.6414
▁produced	-9.64255
▁f	-9.64265
▁fake	-9.64347
▁recent	-9.6439
▁Sam	-9.6447
▁following	-9.64485
▁German	-9.64494
▁biggest	-9.64535
▁dancing	-9.64586
▁escape	-9.64628
id	-9.64819
▁successful	-9.6484
▁9	-9.6484
▁Mary	-9.64918
ni	-9.64963
One	-9.6513
▁Be	-9.65299
▁zombie	-9.65315
▁Movie	-9.6538
▁impression	-9.65666
▁anti	-9.65679
▁slasher	-9.65682
▁shooting	-9.66105
▁project	-9.66404
▁walk	-9.66532
▁decide	-9.66718
▁entirely	-9.66784
▁baby	-9.66797
▁chemistry	-9.66804
com	-9.67023
▁glad	-9.67024
all	-9.67064
▁N	-9.67107
▁studio	-9.67138
▁kills	-9.67273
▁bother	-9.67511
▁showed	-9.67525
▁trip	-9.6757
▁pick	-9.67714
▁apart	-9.67721
movie	-9.67935
▁secret	-9.67941
▁unless	-9.68072
▁died	-9.68264
J	-9.68446
▁charming	-9.68655
▁Smith	-9.687
bo	-9.68712
▁boys	-9.68797
▁bought	-9.68874
▁cult	-9.68901
▁focus	-9.68903
▁Tony	-9.68931
▁purpose	-9.69019
▁situations	-9.69174
▁garbage	-9.69341
▁college	-9.69356
▁earth	-9.69407
ary	-9.69409
▁follows	-9.69428
▁failed	-9.69444
▁compared	-9.69499
▁Best	-9.69506
▁weren	-9.69565
▁otherwise	-9.69615
▁pathetic	-9.69855
▁loud	-9.69912
▁filled	-9.69984
▁revenge	-9.70061
▁considered	-9.70249
▁train	-9.70391
▁violent	-9.70395
▁track	-9.70526
▁sci	-9.70651
▁singing	-9.70663
der	-9.70696
▁honest	-9.70757
▁humour	-9.70759
▁excuse	-9.70772
▁cat	-9.70819
▁week	-9.70855
▁younger	-9.7086
da	-9.70878
ti	-9.70908
▁dis	-9.70946
▁finish	-9.71016
▁Let	-9.71305
▁uses	-9.71385
▁stunning	-9.71474
▁barely	-9.71514
▁explain	-9.71722
▁manner	-9.71798
▁party	-9.72111
▁values	-9.72172
▁changed	-9.72296
▁Black	-9.72299
▁basic	-9.72429
ard	-9.72526
▁Jim	-9.7254
▁rare	-9.72559
▁p	-9.72625
▁state	-9.72852
▁90	-9.73203
▁Night	-9.73243
▁producers	-9.73295
▁impossible	-9.73413
▁London	-9.73428
▁stick	-9.73481
▁adventure	-9.73514
▁Love	-9.7363
that	-9.73689
▁office	-9.73692
▁longer	-9.73735
▁House	-9.73768
▁Big	-9.74016
▁prison	-9.74044
well	-9.7414
▁brain	-9.74259
ig	-9.74277
▁questions	-9.74312
▁date	-9.74332
▁terrific	-9.74391
▁aspect	-9.74409
pe	-9.74547
ci	-9.74574
per	-9.74599
▁touch	-9.74662
▁red	-9.74669
lu	-9.74856
▁appearance	-9.7492
▁starring	-9.74938
ee	-9.75034
▁animated	-9.75333
▁pain	-9.75426
my	-9.75442
▁camp	-9.75521
▁mood	-9.7553
▁meaning	-9.75596
▁Ma	-9.75854
▁company	-9.75881
▁taste	-9.75919
▁catch	-9.76297
▁suddenly	-9.76453
▁Perhaps	-9.76501
▁remind	-9.76518
over	-9.76756
▁charm	-9.76763
▁Director	-9.76801
▁Dead	-9.76839
▁City	-9.76942
▁disappointment	-9.77145
making	-9.773
▁return	-9.77303
▁involving	-9.77437
rs	-9.77483
▁normal	-9.77577
▁unbelievable	-9.77651
▁sitting	-9.77673
▁genius	-9.77864
▁magic	-9.77885
▁street	-9.78057
▁pass	-9.78253
▁100	-9.78314
He	-9.78364
▁books	-9.78588
▁touching	-9.7868
▁disappointing	-9.78757
▁adaptation	-9.78792
▁ability	-9.78821
▁exception	-9.7886
▁spirit	-9.78867
nd	-9.78975
▁con	-9.79059
▁standard	-9.79103
▁Stewart	-9.79239
▁laughable	-9.7924
▁Every	-9.79307
▁("	-9.79327
line	-9.79437
▁ultimately	-9.7953
▁victim	-9.7961
▁ride	-9.797
▁People	-9.79795
▁utterly	-9.7981
▁neither	-9.79969
▁leaving	-9.79969
▁Earth	-9.80012
▁shoot	-9.80061
▁scenery	-9.80081
ure	-9.8009
▁Another	-9.80221
▁added	-9.80287
▁gang	-9.8029
9	-9.80293
▁cause	-9.80314
we	-9.80455
▁climax	-9.80513
▁twists	-9.80707
▁heavy	-9.80798
▁cold	-9.80821
▁sexy	-9.80929
con	-9.80998
▁serial	-9.81017
▁comedies	-9.81036
▁runs	-9.81193
▁moral	-9.81201
▁god	-9.81201
▁generally	-9.8124
ber	-9.81294
▁considering	-9.81336
▁somewhere	-9.81356
▁Frank	-9.81464
▁innocent	-9.81559
▁master	-9.81585
▁happening	-9.81666
▁painful	-9.8167
▁managed	-9.81678
▁images	-9.81695
▁40	-9.82007
▁mad	-9.82063
▁tone	-9.82071
▁silent	-9.82077
▁detective	-9.82101
▁support	-9.82186
▁mistake	-9.82231
▁terms	-9.82291
▁immediately	-9.82366
▁road	-9.82428
▁edge	-9.82453
ak	-9.82475
▁Very	-9.82502
For	-9.82614
ow	-9.82685
To	-9.82843
▁recommended	-9.82872
▁nowhere	-9.83212
▁natural	-9.83336
▁drive	-9.8354
▁issues	-9.8356
▁outstanding	-9.83712
▁Rock	-9.83713
▁smart	-9.83879
▁color	-9.84032
▁expectations	-9.84294
▁motion	-9.84396
▁costumes	-9.84426
▁Steve	-9.84603
di	-9.84686
▁presence	-9.84776
▁Still	-9.84884
ler	-9.8493
▁subtle	-9.85061
you	-9.85063
▁okay	-9.85096
▁Watch	-9.85251
▁spot	-9.85315
▁century	-9.85352
▁Allen	-9.85408
▁80'	-9.85524
▁marriage	-9.856
▁pro	-9.85699
▁makers	-9.85719
▁fully	-9.8581
▁photography	-9.85893
dy	-9.85912
▁suppose	-9.85985
even	-9.86093
▁OF	-9.86185
▁fresh	-9.86186
▁hoping	-9.86192
▁surprisingly	-9.86266
ster	-9.86276
▁attack	-9.86296
▁plus	-9.863
ag	-9.86338
▁beautifully	-9.86391
▁narrative	-9.86431
▁Jones	-9.86519
▁suggest	-9.86532
▁drug	-9.86602
▁Van	-9.86669
▁cinematic	-9.86746
▁fair	-9.86755
▁sleep	-9.86771
ING	-9.86864
▁audiences	-9.87143
way	-9.8721
▁details	-9.87303
ger	-9.87338
▁compelling	-9.87339
▁western	-9.87357
tic	-9.87385
▁Only	-9.87405
▁soul	-9.87429
▁content	-9.87503
▁force	-9.87649
▁Mc	-9.87687
▁literally	-9.87903
▁Though	-9.87964
8	-9.8809
▁government	-9.88129
side	-9.88377
▁remains	-9.88402
▁emotion	-9.88414
▁sent	-9.88421
▁science	-9.8844
▁equally	-9.88471
▁drawn	-9.88495
▁fell	-9.88496
▁constantly	-9.88503
▁complex	-9.88666
▁thrown	-9.88723
▁lovely	-9.8879
cu	-9.88951
▁shock	-9.88997
▁boyfriend	-9.89022
▁alive	-9.89066
▁themes	-9.89091
▁fascinating	-9.89252
▁Red	-9.89276
▁80	-9.89346
6	-9.89388
▁door	-9.89421
▁presented	-9.89534
▁likable	-9.89539
▁tired	-9.89568
▁military	-9.89574
▁animals	-9.89581
lin	-9.89818
▁Indian	-9.89947
▁professional	-9.89982
▁available	-9.90116
▁trailer	-9.90241
▁mysterious	-9.90249
▁zombies	-9.9034
ey	-9.90374
budget	-9.90384
▁opportunity	-9.90403
▁system	-9.90403
ring	-9.90465
▁notice	-9.90468
▁knowing	-9.90474
▁Li	-9.90532
▁slowly	-9.90589
▁minor	-9.90704
▁noir	-9.90714
▁Harry	-9.90736
▁South	-9.90741
▁Chris	-9.90781
▁contains	-9.90839
▁negative	-9.90984
▁intended	-9.91026
▁Charlie	-9.91031
ier	-9.9104
▁likely	-9.91169
▁key	-9.91203
▁race	-9.91387
▁dreams	-9.91506
ab	-9.91548
▁brief	-9.91708
▁Ro	-9.9183
▁Ra	-9.91903
▁building	-9.91924
▁soldiers	-9.92126
▁Will	-9.92209
led	-9.92349
▁opera	-9.92374
▁affair	-9.9245
▁fellow	-9.92456
▁law	-9.92471
che	-9.92518
▁sat	-9.9255
▁laughed	-9.9256
▁mix	-9.9264
▁offer	-9.9265
▁aspects	-9.92724
▁Co	-9.92934
▁student	-9.9294
▁stands	-9.93189
▁Ed	-9.93221
▁bed	-9.93335
▁Young	-9.93435
▁fashion	-9.93458
▁gem	-9.93533
po	-9.93549
▁imagination	-9.93639
▁Because	-9.93719
▁mouth	-9.9377
▁rip	-9.93806
▁historical	-9.93817
▁emotions	-9.93866
▁10.	-9.93915
▁appeared	-9.93931
▁journey	-9.93939
j	-9.94108
▁50	-9.9419
▁ground	-9.94241
▁answer	-9.94264
▁g	-9.94303
va	-9.94306
▁Story	-9.94315
▁Two	-9.94382
▁include	-9.94584
om	-9.9466
▁difference	-9.94755
▁unlike	-9.95105
▁feelings	-9.95142
▁gorgeous	-9.95145
▁plan	-9.95358
▁Bruce	-9.95504
▁share	-9.95514
▁sight	-9.95519
▁lighting	-9.95535
▁remote	-9.95754
▁mediocre	-9.95766
▁walking	-9.95788
▁creative	-9.95795
▁Sa	-9.95889
nt	-9.9594
ated	-9.95942
▁developed	-9.95954
ate	-9.9596
▁confusing	-9.9606
▁dad	-9.96171
▁Mar	-9.96197
We	-9.96465
▁Martin	-9.96674
▁See	-9.96708
▁Sure	-9.9673
▁wondering	-9.96785
▁mid	-9.96791
ga	-9.96907
▁boss	-9.96944
▁shocking	-9.96949
▁join	-9.96955
▁hasn	-9.9697
▁throw	-9.96988
▁pictures	-9.97028
▁impressed	-9.97042
▁Batman	-9.97071
▁detail	-9.97077
▁Nothing	-9.97081
▁rated	-9.97122
▁Ho	-9.97141
▁critics	-9.97201
▁favourite	-9.97294
▁station	-9.97311
▁Kelly	-9.97338
men	-9.97347
▁absurd	-9.9759
▁direct	-9.97591
▁pleasant	-9.97603
▁Davis	-9.97603
ho	-9.97606
▁Christopher	-9.97681
ru	-9.97709
▁students	-9.97733
▁Bad	-9.97812
ER	-9.97871
▁names	-9.97891
▁attractive	-9.97934
▁Anyway	-9.97937
▁treat	-9.98038
▁dies	-9.98108
▁Charles	-9.98215
▁smile	-9.98227
▁superior	-9.98227
▁addition	-9.98371
▁lover	-9.98414
▁step	-9.98418
ba	-9.98457
▁mark	-9.98498
▁funniest	-9.9854
▁double	-9.9854
▁confused	-9.98564
▁paid	-9.98583
▁phone	-9.98638
▁regard	-9.98669
ex	-9.98746
ize	-9.98767
mon	-9.98832
▁current	-9.98885
▁rented	-9.98889
▁Henry	-9.98928
▁suit	-9.9895
▁proves	-9.98958
▁chase	-9.99007
▁record	-9.99059
▁childhood	-9.99177
▁Can	-9.99299
ably	-9.99358
les	-9.99378
▁giant	-9.99487
7	-9.99501
That	-9.9953
▁ahead	-9.99601
▁adults	-9.99658
▁Where	-9.99665
▁ghost	-9.99711
▁folks	-9.99803
▁hospital	-9.99804
▁element	-9.99823
good	-9.99848
ence	-9.99984
see	-10.0011
▁tragic	-10.0012
▁epic	-10.0015
▁West	-10.0023
que	-10.003
▁Le	-10.0043
▁apartment	-10.0046
When	-10.0049
▁Paris	-10.0051
▁oh	-10.0053
top	-10.0056
▁Mo	-10.0058
▁Jean	-10.0062
▁delivers	-10.0063
▁porn	-10.0083
▁mainly	-10.0084
▁changes	-10.0093
▁Billy	-10.0099
▁extra	-10.01
▁flaws	-10.0103
▁nobody	-10.0111
▁tend	-10.0117
▁reminded	-10.0132
▁naked	-10.0141
▁collection	-10.0141
▁victims	-10.0156
▁becoming	-10.0156
▁approach	-10.0158
▁random	-10.0158
▁describe	-10.0163
▁island	-10.0163
▁relationships	-10.0165
▁pleasure	-10.0173
▁thoroughly	-10.0174
ac	-10.0182
▁forever	-10.0193
▁falling	-10.0199
▁twice	-10.0206
▁forgotten	-10.0209
▁numbers	-10.0213
▁struggle	-10.0213
▁Too	-10.0213
▁Day	-10.022
▁standards	-10.0222
▁actresses	-10.0224
▁Overall	-10.0232
▁rape	-10.0241
▁anymore	-10.0243
▁lived	-10.0252
▁cry	-10.0256
▁planet	-10.0266
▁stuck	-10.0271
life	-10.0274
hi	-10.0275
▁lacks	-10.028
▁Little	-10.0283
▁damn	-10.0291
kin	-10.0309
min	-10.0313
▁disaster	-10.0336
▁latter	-10.0337
▁la	-10.0337
▁quick	-10.0342
house	-10.0343
▁Williams	-10.0346
▁intense	-10.0354
▁honestly	-10.0358
▁acts	-10.0361
▁industry	-10.0369
▁impact	-10.0372
▁redeeming	-10.0378
year	-10.0383
red	-10.0384
▁flicks	-10.0396
▁Na	-10.0399
▁Arthur	-10.0411
▁offers	-10.0425
▁Pa	-10.0434
▁pull	-10.0439
▁deliver	-10.0462
▁afraid	-10.0471
▁design	-10.0476
Overall	-10.0476
▁fiction	-10.0477
▁followed	-10.0477
▁ship	-10.0481
pi	-10.0482
▁sh	-10.0483
▁justice	-10.0486
▁count	-10.0487
▁extreme	-10.0492
▁ready	-10.0499
▁central	-10.0503
▁bright	-10.0503
▁Jerry	-10.0507
▁beat	-10.0514
▁image	-10.0517
ped	-10.0517
▁compare	-10.0527
op	-10.0527
ble	-10.0528
▁listen	-10.0534
▁provides	-10.0535
some	-10.0537
▁joy	-10.0538
▁genuine	-10.0547
▁Yet	-10.0557
ja	-10.0558
what	-10.0558
▁Miss	-10.0559
▁pilot	-10.057
▁wooden	-10.0571
▁AND	-10.0584
▁Christian	-10.0593
▁member	-10.0596
▁producer	-10.06
▁accident	-10.0603
&	-10.0612
she	-10.0615
▁lose	-10.0616
▁sadly	-10.0621
▁places	-10.0623
▁tragedy	-10.0637
mi	-10.064
▁exist	-10.0653
▁pieces	-10.0653
▁location	-10.0655
▁IS	-10.0658
▁absolute	-10.0659
ating	-10.0662
mer	-10.0666
▁wall	-10.0668
No	-10.0673
▁mom	-10.0682
▁thin	-10.0685
Don	-10.0688
▁70'	-10.0696
work	-10.0701
▁nasty	-10.0706
ck	-10.0706
▁Ha	-10.0715
▁merely	-10.0717
▁o	-10.072
▁process	-10.074
▁Russian	-10.0744
▁surely	-10.0747
▁vision	-10.0759
▁channel	-10.076
▁puts	-10.0763
▁six	-10.0771
▁filmmaker	-10.0777
▁Street	-10.0777
▁loose	-10.078
▁putting	-10.0784
▁vampire	-10.0797
▁allow	-10.0801
don	-10.0808
▁comedic	-10.0809
▁d	-10.0811
ca	-10.0815
ron	-10.0823
▁scientist	-10.0834
▁70	-10.0837
▁clothes	-10.0844
▁bottom	-10.0847
▁club	-10.0847
▁Ray	-10.0869
▁Con	-10.088
▁shouldn	-10.0883
▁build	-10.0887
film	-10.0888
▁murders	-10.0892
au	-10.0895
▁Despite	-10.09
▁wild	-10.09
▁picked	-10.0905
▁artist	-10.0905
▁million	-10.0908
▁mine	-10.0912
▁information	-10.0913
▁turning	-10.0914
▁everybody	-10.0914
ph	-10.0915
▁Chinese	-10.0916
▁held	-10.0927
▁Ms	-10.0928
▁Un	-10.0943
▁martial	-10.0948
▁whatsoever	-10.0948
io	-10.0963
▁blame	-10.0966
▁blind	-10.0983
▁Ka	-10.0984
▁suicide	-10.0986
▁sign	-10.0991
▁Nick	-10.0992
▁allowed	-10.1001
▁torture	-10.1003
▁soap	-10.1004
▁instance	-10.1018
▁Other	-10.1024
▁Once	-10.1038
oo	-10.1044
▁12	-10.1047
ten	-10.1053
ning	-10.1056
▁personality	-10.1056
▁Many	-10.1067
▁Alan	-10.1074
▁teacher	-10.1087
▁Douglas	-10.1091
Now	-10.1093
▁pop	-10.1097
▁soft	-10.1103
▁tears	-10.1111
▁:	-10.1112
king	-10.1125
▁brothers	-10.1126
▁aside	-10.1138
▁v	-10.114
Well	-10.1144
▁Mark	-10.1152
▁board	-10.1154
▁hurt	-10.1154
▁adds	-10.1159
▁moved	-10.1163
ick	-10.1163
▁wonderfully	-10.1168
▁inspired	-10.1172
▁Tim	-10.1172
OR	-10.1181
▁Che	-10.1182
▁personally	-10.1194
▁criminal	-10.1194
her	-10.1204
▁artistic	-10.1206
▁Was	-10.1212
▁Se	-10.1212
▁technical	-10.1217
▁finding	-10.1217
▁plane	-10.123
▁independent	-10.1234
▁Stephen	-10.124
▁teen	-10.1242
▁brutal	-10.1251
▁jump	-10.1262
▁author	-10.1267
▁commentary	-10.127
▁European	-10.1273
▁Horror	-10.1275
▁roll	-10.1278
▁realized	-10.1279
▁Both	-10.128
▁survive	-10.1287
▁clean	-10.1299
▁energy	-10.1304
▁friendship	-10.1306
▁Adam	-10.1314
▁deserve	-10.1322
▁area	-10.1329
ious	-10.1331
AN	-10.1337
▁onto	-10.1338
▁intelligence	-10.1341
day	-10.1341
▁helps	-10.1346
▁physical	-10.1362
▁Ba	-10.1363
mp	-10.1375
00	-10.1378
▁Taylor	-10.138
▁scared	-10.1396
▁mental	-10.1398
ff	-10.1403
▁deeply	-10.1407
▁Their	-10.1411
▁perspective	-10.1414
▁Stone	-10.1416
Not	-10.1423
▁Show	-10.1426
▁Please	-10.1433
▁angry	-10.1435
ug	-10.1437
▁wide	-10.1441
▁teenage	-10.1446
▁Hitler	-10.1454
ah	-10.1455
ud	-10.1463
▁carry	-10.1466
▁holes	-10.1475
▁finished	-10.1478
▁accept	-10.148
▁19	-10.1483
▁watchable	-10.1484
▁seemingly	-10.1488
▁helped	-10.1489
▁theatre	-10.1489
▁agent	-10.1492
▁thanks	-10.1501
especially	-10.1502
▁began	-10.151
▁drugs	-10.1515
▁per	-10.1518
▁unnecessary	-10.1525
▁necessary	-10.1525
▁provide	-10.1527
bu	-10.1537
ut	-10.1538
▁tape	-10.1554
▁engaging	-10.1562
▁strength	-10.1562
▁memory	-10.1562
▁remarkable	-10.1562
▁asks	-10.1577
▁willing	-10.1589
ki	-10.16
ect	-10.1602
▁religious	-10.1603
▁anywhere	-10.1604
os	-10.1607
ance	-10.1615
▁unusual	-10.1621
▁worthy	-10.1623
▁explanation	-10.1637
▁intriguing	-10.1637
played	-10.1637
▁Jr	-10.1648
rate	-10.1648
▁White	-10.165
▁accurate	-10.1659
▁apparent	-10.1659
▁Wood	-10.1666
▁Mel	-10.1668
▁led	-10.167
▁church	-10.1674
▁hotel	-10.1677
▁debut	-10.168
▁includes	-10.1685
bad	-10.1694
▁surprising	-10.1701
▁continue	-10.1701
▁ugly	-10.1712
▁filming	-10.1712
▁bland	-10.1714
▁Lo	-10.1714
star	-10.1715
▁supposedly	-10.1718
▁loving	-10.172
director	-10.1728
▁suspect	-10.1739
▁Lynch	-10.175
▁dying	-10.175
▁food	-10.1754
▁Morgan	-10.1754
▁event	-10.1756
▁awkward	-10.1788
▁Americans	-10.1788
▁pacing	-10.1788
▁w	-10.1799
American	-10.1805
▁favor	-10.1824
our	-10.1833
▁Eddie	-10.1833
▁wearing	-10.1843
pa	-10.1848
▁High	-10.1856
▁Shakespeare	-10.1866
▁Keaton	-10.1868
▁cross	-10.1869
▁length	-10.1871
▁Life	-10.1877
▁conflict	-10.1897
▁Ford	-10.1897
▁floor	-10.1903
▁passion	-10.1907
▁Brian	-10.1913
▁ill	-10.1922
▁desperate	-10.1926
ap	-10.1931
▁VHS	-10.1942
▁land	-10.1943
▁gotten	-10.1947
▁heroine	-10.1951
▁media	-10.1955
▁wit	-10.1967
▁18	-10.1984
▁winning	-10.1994
▁speaking	-10.1997
▁creature	-10.1997
▁sell	-10.1997
screen	-10.1998
▁formula	-10.2018
▁blue	-10.2021
▁bank	-10.203
▁Joan	-10.2043
▁utter	-10.2055
▁drunk	-10.2057
▁rubbish	-10.2058
▁****	-10.2061
▁fault	-10.2074
▁Kate	-10.2076
▁quiet	-10.2082
▁test	-10.2083
▁capture	-10.2096
▁behavior	-10.2097
▁pretentious	-10.2097
▁1970	-10.2097
▁thus	-10.2098
ED	-10.2099
▁owner	-10.2099
▁CGI	-10.2101
??	-10.2136
▁par	-10.2136
▁memories	-10.2137
▁introduced	-10.2143
▁Jason	-10.2147
.....	-10.2152
▁anybody	-10.2157
▁fill	-10.2162
▁11	-10.2172
▁faces	-10.2173
▁players	-10.2174
istic	-10.2176
▁vehicle	-10.2176
▁knowledge	-10.2179
▁Jackson	-10.2179
▁cable	-10.218
▁Dick	-10.2186
▁Ann	-10.2196
iness	-10.2198
ass	-10.2203
▁seat	-10.2204
▁search	-10.2208
▁unknown	-10.2217
▁Having	-10.2231
▁st	-10.2237
▁born	-10.2238
▁hated	-10.224
▁delightful	-10.2241
▁rarely	-10.2241
▁issue	-10.2245
▁woods	-10.2254
▁seven	-10.2257
ward	-10.2262
war	-10.2262
▁Everything	-10.2266
▁May	-10.2279
▁dealing	-10.2281
▁partner	-10.2284
▁site	-10.2289
ions	-10.2292
▁1980	-10.2296
▁player	-10.2302
▁limited	-10.2305
An	-10.2306
▁Dan	-10.2313
▁Fred	-10.2313
▁Dark	-10.2314
ping	-10.2318
▁travel	-10.2319
▁Did	-10.2325
mm	-10.2339
back	-10.2354
▁produce	-10.2354
gu	-10.2358
▁wanting	-10.2364
ina	-10.2381
▁award	-10.2385
rd	-10.2389
▁France	-10.2391
▁develop	-10.2395
▁wise	-10.2396
▁manage	-10.2396
ueen	-10.2404
ero	-10.2408
▁African	-10.242
uck	-10.2424
▁Eric	-10.2428
▁path	-10.2434
▁warm	-10.2439
▁commercial	-10.2443
art	-10.2444
▁frame	-10.245
▁England	-10.2457
▁window	-10.2458
▁dangerous	-10.2458
▁Danny	-10.2466
▁research	-10.2467
▁(19	-10.2474
▁asked	-10.2482
Oh	-10.2486
▁Bob	-10.2489
▁explained	-10.249
▁trust	-10.249
▁13	-10.2495
▁Japan	-10.2498
▁terribly	-10.2498
▁hat	-10.25
???	-10.2503
▁deserved	-10.2509
▁Since	-10.2513
▁Andy	-10.2521
▁fail	-10.2522
▁constant	-10.2524
▁mixed	-10.2525
IN	-10.2529
▁responsible	-10.2541
▁summer	-10.2544
▁mo	-10.2544
▁Everyone	-10.2548
▁youth	-10.255
▁flying	-10.2557
▁treated	-10.2563
▁noticed	-10.2564
▁round	-10.2574
▁satire	-10.258
On	-10.2581
▁mis	-10.2592
▁seconds	-10.2594
However	-10.2604
▁assume	-10.2605
▁kick	-10.2613
▁bloody	-10.2615
▁regret	-10.2616
▁twenty	-10.2622
▁opposite	-10.2622
▁shop	-10.2622
▁spectacular	-10.2624
▁prove	-10.2625
▁ho	-10.2627
▁paper	-10.2631
▁regular	-10.2651
▁individual	-10.2651
LY	-10.2659
▁magnificent	-10.2663
▁creating	-10.2663
looking	-10.2663
▁failure	-10.2664
▁Ne	-10.2665
▁humorous	-10.2667
▁concerned	-10.2677
▁fate	-10.2679
par	-10.268
▁skills	-10.2691
▁dated	-10.2693
though	-10.27
▁advice	-10.2705
▁naive	-10.2705
▁unfunny	-10.2706
▁product	-10.2707
▁holds	-10.2707
there	-10.2709
▁Di	-10.2713
▁horse	-10.2716
▁arts	-10.2718
▁60	-10.272
▁pulled	-10.2727
▁growing	-10.2729
▁hadn	-10.2736
▁kinda	-10.2738
▁destroy	-10.2745
▁hidden	-10.2747
▁Kevin	-10.2753
▁finest	-10.2754
▁desire	-10.2761
▁nicely	-10.2774
▁visit	-10.2778
tion	-10.2782
▁reviewers	-10.2784
ell	-10.2788
▁contrast	-10.2789
▁gags	-10.2794
▁portray	-10.2817
ned	-10.2819
!!!!	-10.2823
▁sucks	-10.2824
ice	-10.2825
▁shallow	-10.2831
▁army	-10.2838
▁model	-10.2846
although	-10.2859
▁months	-10.2869
▁community	-10.2873
▁understanding	-10.2875
▁Western	-10.2879
▁Blood	-10.2885
ise	-10.2905
▁below	-10.2909
▁Simon	-10.2912
▁Washington	-10.2918
▁Jesus	-10.2921
▁Johnny	-10.2926
▁en	-10.293
▁sing	-10.2931
▁lovers	-10.2933
rated	-10.2941
While	-10.2941
▁discover	-10.2942
▁program	-10.2948
▁comparison	-10.2951
Some	-10.2955
▁animal	-10.2957
▁thinks	-10.2958
▁parody	-10.2962
▁stock	-10.2968
▁Those	-10.2969
▁sucked	-10.2972
▁recall	-10.2978
▁lies	-10.2986
▁reaction	-10.2999
▁context	-10.3001
▁priest	-10.3001
zz	-10.3005
▁humanity	-10.3009
!).	-10.3011
▁cops	-10.3019
let	-10.3022
▁practical	-10.3023
▁market	-10.3025
▁hang	-10.3036
▁gangster	-10.3041
▁nonsense	-10.3051
▁Santa	-10.3057
La	-10.3059
▁lacking	-10.3064
▁relate	-10.3071
Also	-10.3072
▁spoil	-10.3078
ris	-10.3078
▁Gene	-10.3082
▁witty	-10.3089
qui	-10.3094
tra	-10.3101
▁ran	-10.3103
▁ruin	-10.3106
▁murdered	-10.3109
▁cameo	-10.311
▁grew	-10.3132
▁Park	-10.3133
▁radio	-10.3134
▁field	-10.3137
▁range	-10.316
▁eat	-10.316
▁THIS	-10.3175
▁Jeff	-10.3185
▁locations	-10.3196
low	-10.3198
▁included	-10.3199
▁psychological	-10.3203
▁Lady	-10.322
▁alien	-10.3225
▁starting	-10.3228
▁Mike	-10.3229
▁mini	-10.3238
▁Vi	-10.3243
▁keeping	-10.3248
▁hopes	-10.3253
▁loss	-10.3262
▁fame	-10.3264
▁bigger	-10.3269
▁loves	-10.3272
▁talents	-10.3275
ng	-10.3276
▁grow	-10.3276
they	-10.328
▁judge	-10.3289
Even	-10.3293
fe	-10.3294
ung	-10.3295
▁Y	-10.3305
▁empty	-10.3307
▁festival	-10.3307
▁Men	-10.3311
▁dry	-10.3314
fully	-10.332
▁saved	-10.3323
od	-10.3324
▁returns	-10.3337
▁Sean	-10.3337
▁results	-10.334
▁Moore	-10.3352
▁corny	-10.3355
▁sees	-10.3361
light	-10.3361
▁received	-10.3364
▁print	-10.3365
mar	-10.337
▁mission	-10.3371
ities	-10.3372
▁Ca	-10.3386
Re	-10.3394
▁ladies	-10.3396
▁Albert	-10.3401
▁traditional	-10.3422
▁remembered	-10.343
ens	-10.344
▁sake	-10.3441
▁green	-10.3447
▁soldier	-10.3449
▁finale	-10.3449
▁highlight	-10.3449
▁toward	-10.3453
▁Which	-10.3457
▁steal	-10.3463
Do	-10.3465
▁discovered	-10.3466
▁desert	-10.3468
**	-10.3469
▁curious	-10.3471
▁Harris	-10.3485
▁gonna	-10.3486
▁guns	-10.3487
▁Time	-10.3487
▁pair	-10.3488
LE	-10.3493
▁learned	-10.3494
▁faith	-10.351
▁originally	-10.3513
▁crowd	-10.3513
▁lesson	-10.3513
▁crappy	-10.3531
▁news	-10.3536
▁somebody	-10.3536
▁decade	-10.3537
▁games	-10.3538
▁TO	-10.3543
▁th	-10.3546
▁Asian	-10.3548
▁loses	-10.3554
▁fat	-10.3561
▁unexpected	-10.3562
▁numerous	-10.3577
▁driving	-10.3577
▁gratuitous	-10.3577
▁Kong	-10.3578
▁consist	-10.358
▁speed	-10.3581
▁study	-10.3599
Of	-10.3608
);	-10.3617
▁villains	-10.3625
▁Fox	-10.3628
▁Lord	-10.363
▁machine	-10.3634
real	-10.3636
▁entertained	-10.3638
▁lets	-10.3642
▁captured	-10.3642
▁draw	-10.3649
just	-10.3652
First	-10.3654
▁aware	-10.3666
▁amateur	-10.3667
▁deals	-10.3671
▁Spanish	-10.3671
▁featur	-10.3677
▁wedding	-10.3677
▁grown	-10.3678
▁hits	-10.3685
▁screaming	-10.3685
▁higher	-10.3685
▁skin	-10.3691
▁Cage	-10.3695
▁breaks	-10.3704
▁lower	-10.3708
▁irritating	-10.3714
▁religion	-10.3714
▁therefore	-10.3714
▁sea	-10.3726
▁Before	-10.3732
▁officer	-10.3733
▁gory	-10.3734
▁fights	-10.3735
▁continues	-10.3753
▁IN	-10.3754
▁luck	-10.3758
▁families	-10.3761
▁amateurish	-10.3762
▁dislike	-10.3763
▁Anthony	-10.3767
▁Alex	-10.3771
▁cars	-10.378
▁Gary	-10.378
▁foot	-10.378
▁heroes	-10.3782
▁dreadful	-10.3792
▁Chan	-10.3792
bi	-10.3801
▁morning	-10.3807
▁scenario	-10.3807
▁existence	-10.3808
▁stopped	-10.3809
▁Ar	-10.3809
▁display	-10.381
▁appealing	-10.3817
▁costume	-10.3822
▁cr	-10.3827
▁brilliantly	-10.3831
▁Marie	-10.3836
▁passed	-10.384
gen	-10.3841
▁reviewer	-10.3848
▁spoof	-10.3854
▁sharp	-10.3854
▁source	-10.3854
▁paint	-10.3855
▁grace	-10.3855
▁Wayne	-10.3858
▁gross	-10.386
▁laughter	-10.3861
▁Green	-10.3862
Ha	-10.3862
They	-10.3864
uff	-10.3872
▁singer	-10.3876
▁painfully	-10.3882
▁realism	-10.3882
▁Cr	-10.3885
▁Pro	-10.3886
cy	-10.3886
▁substance	-10.3901
▁unrealistic	-10.3901
▁underrated	-10.3903
▁majority	-10.3905
▁reach	-10.3907
▁Freddy	-10.3909
▁?	-10.3912
▁boat	-10.3914
▁protagonist	-10.3916
▁connection	-10.3916
▁II	-10.3917
vo	-10.392
▁target	-10.393
▁Pe	-10.3942
▁Matt	-10.3944
▁efforts	-10.3947
▁gold	-10.3948
▁degree	-10.3948
▁ordinary	-10.3948
▁Brown	-10.3948
▁contrived	-10.3949
▁village	-10.395
▁disgusting	-10.3955
▁pile	-10.3955
▁Jimmy	-10.3956
▁overly	-10.3956
▁Parker	-10.3962
▁warning	-10.3971
▁Cha	-10.3978
At	-10.3985
▁refreshing	-10.3995
▁cash	-10.3995
▁Trek	-10.3996
▁relief	-10.3996
▁depressing	-10.3997
▁foreign	-10.3998
▁executed	-10.4001
▁Daniel	-10.4003
ane	-10.4007
▁Okay	-10.4013
pro	-10.4014
▁edited	-10.4014
▁proved	-10.4015
▁references	-10.4016
▁blonde	-10.4021
▁flow	-10.4031
▁excited	-10.4045
▁Gordon	-10.4047
▁visuals	-10.4058
▁heads	-10.4068
▁Jo	-10.4072
▁embarrassing	-10.408
▁ring	-10.4089
▁combination	-10.4091
▁tedious	-10.4091
ub	-10.4092
▁grade	-10.4096
▁Wow	-10.4105
▁graphic	-10.411
▁Academy	-10.4139
▁treatment	-10.4141
▁perform	-10.4141
▁/	-10.4141
▁Death	-10.4147
▁rental	-10.4149
▁leader	-10.4156
▁meeting	-10.4159
She	-10.416
cha	-10.4163
▁bits	-10.4165
▁stereotypes	-10.4187
▁Howard	-10.4191
▁vote	-10.4191
head	-10.4192
▁cost	-10.4203
▁Really	-10.4207
cing	-10.4213
ay	-10.4221
▁proper	-10.4224
▁lawyer	-10.4236
▁Broadway	-10.4239
ator	-10.4244
▁Thomas	-10.4245
▁unable	-10.4248
▁Com	-10.4249
▁revealed	-10.425
▁grand	-10.4252
▁drag	-10.4257
▁choose	-10.4259
Then	-10.426
▁delivered	-10.4262
down	-10.4262
▁costs	-10.4262
▁ultimate	-10.4274
▁Joseph	-10.429
▁contain	-10.4291
▁humans	-10.4301
▁correct	-10.4305
Fi	-10.4316
lan	-10.4316
▁rescue	-10.4317
How	-10.4327
▁Prince	-10.4328
▁involves	-10.433
ney	-10.4352
▁ruined	-10.4354
▁generation	-10.4364
▁Kim	-10.4366
▁DO	-10.4369
John	-10.4372
▁exceptional	-10.4376
▁built	-10.4383
▁sympathetic	-10.4383
▁skip	-10.4386
▁discovers	-10.439
▁NO	-10.4392
▁Part	-10.4408
▁hide	-10.4409
▁caused	-10.4415
With	-10.4422
▁emotionally	-10.4426
---	-10.4427
ear	-10.4431
▁prefer	-10.4432
?!	-10.4433
▁theaters	-10.4437
▁semi	-10.4439
▁Barbara	-10.4442
▁types	-10.4453
▁ball	-10.4458
▁knock	-10.4464
▁logic	-10.4465
▁sheer	-10.4466
oh	-10.4467
▁Ko	-10.4468
▁Steven	-10.4476
▁More	-10.4482
▁risk	-10.4483
▁10/10	-10.4484
▁handsome	-10.4485
▁Canadian	-10.4485
▁legend	-10.4486
made	-10.4489
▁send	-10.4489
till	-10.4492
▁portrays	-10.4493
▁achieve	-10.4498
▁Walter	-10.4499
▁described	-10.4508
▁chick	-10.4516
▁Du	-10.4517
▁Mi	-10.4517
▁insult	-10.4518
car	-10.4521
▁Po	-10.4522
▁Ri	-10.4525
▁Anne	-10.453
▁Ryan	-10.4533
▁section	-10.4538
▁reporter	-10.454
▁safe	-10.4541
▁Jackie	-10.4542
▁Tarzan	-10.4542
▁Robin	-10.4547
▁portraying	-10.4562
▁normally	-10.4563
▁segment	-10.4563
▁expression	-10.4564
▁attitude	-10.4567
▁insane	-10.457
▁uncle	-10.4572
▁price	-10.4572
After	-10.4573
ran	-10.4576
▁powers	-10.4578
▁lousy	-10.4582
▁fare	-10.4587
▁Luke	-10.4589
▁clue	-10.4592
▁asleep	-10.4597
▁capable	-10.4602
De	-10.4611
▁flesh	-10.4615
ack	-10.462
▁whil	-10.4625
▁hearing	-10.4628
▁tr	-10.463
▁technology	-10.4633
▁statement	-10.4635
plot	-10.4642
▁cuts	-10.4646
▁Woody	-10.4647
▁witch	-10.4648
▁suffering	-10.4663
AL	-10.4664
▁Sp	-10.4665
▁spell	-10.4666
▁14	-10.468
▁forces	-10.468
▁Hitchcock	-10.4684
▁zero	-10.4684
▁wind	-10.4686
▁actions	-10.4687
▁cell	-10.4692
▁psycho	-10.4692
row	-10.4695
▁Get	-10.4703
▁scare	-10.4705
▁junk	-10.471
▁bore	-10.4718
▁pet	-10.472
ite	-10.4721
▁appropriate	-10.4723
▁creates	-10.4729
▁ALL	-10.4731
▁Murphy	-10.4735
▁theatrical	-10.4735
▁ancient	-10.4735
▁host	-10.4737
▁Jennifer	-10.4744
▁calls	-10.4747
▁yeah	-10.4748
▁Lewis	-10.4751
▁flashbacks	-10.4755
av	-10.4756
ball	-10.4781
▁bat	-10.4786
▁evidence	-10.4786
▁veteran	-10.4786
▁harsh	-10.4786
▁depiction	-10.4787
▁promising	-10.4792
▁satisfying	-10.4796
▁sports	-10.4796
▁essentially	-10.4797
▁occasionally	-10.4801
AR	-10.4804
▁promise	-10.4806
▁entertain	-10.4812
▁circumstances	-10.4814
▁routine	-10.4823
▁decision	-10.4823
how	-10.4834
▁teenager	-10.4835
▁identity	-10.4837
▁THAT	-10.4838
▁anime	-10.4838
▁exploitation	-10.4838
▁Australian	-10.4842
▁feet	-10.4847
▁endless	-10.4853
▁seasons	-10.4876
fu	-10.4885
▁horribly	-10.4889
▁offensive	-10.4889
▁qualities	-10.4889
ative	-10.4892
▁UK	-10.4894
▁Plus	-10.4894
▁Rose	-10.49
▁Boy	-10.4907
sp	-10.491
izing	-10.4916
▁table	-10.4926
▁recognize	-10.4927
▁van	-10.4934
ix	-10.4935
▁rival	-10.4941
▁Anderson	-10.4941
▁Russell	-10.4942
ya	-10.4946
▁dubbed	-10.4947
▁Come	-10.4951
▁lucky	-10.4962
use	-10.4966
▁Pat	-10.4969
field	-10.4969
▁influence	-10.4978
▁Europe	-10.4992
▁lesbian	-10.4996
▁Edward	-10.4999
▁load	-10.5
▁ha	-10.5006
ven	-10.5007
▁convinced	-10.5009
▁Anna	-10.5015
▁crack	-10.5026
▁asking	-10.5044
▁welcome	-10.5046
▁excitement	-10.5046
▁saving	-10.5047
▁danger	-10.5048
▁winner	-10.5048
▁sitcom	-10.5049
▁di	-10.5055
▁Last	-10.5057
▁claim	-10.5058
▁opens	-10.5072
▁unlikely	-10.5073
▁unfortunate	-10.5084
▁visually	-10.5084
▁Up	-10.5088
gi	-10.5089
tro	-10.5089
▁IT	-10.5091
▁SO	-10.5095
▁chosen	-10.5103
▁Anyone	-10.511
▁factor	-10.5112
▁dressed	-10.5118
▁strongly	-10.5121
▁Germany	-10.5124
▁bear	-10.5142
▁eating	-10.515
▁Pacino	-10.5152
▁nominated	-10.5159
▁rise	-10.5168
▁Over	-10.5168
▁pity	-10.5172
▁Welles	-10.5179
▁marry	-10.5181
▁captures	-10.5185
Be	-10.5194
▁Clark	-10.5202
▁Hall	-10.5204
▁crude	-10.5211
▁murderer	-10.5222
▁ages	-10.5233
▁El	-10.5234
▁Sci	-10.5235
▁concern	-10.5236
▁center	-10.5237
▁thank	-10.5243
ang	-10.5247
▁expert	-10.5248
▁account	-10.5253
▁Africa	-10.5255
▁1950	-10.5258
▁Festival	-10.526
▁glimpse	-10.526
▁met	-10.5265
▁Superman	-10.527
bit	-10.5271
rew	-10.5279
▁Killer	-10.5292
▁steals	-10.5308
▁root	-10.531
▁category	-10.5314
▁Nancy	-10.532
▁Columbo	-10.532
▁standing	-10.5323
can	-10.5326
▁anger	-10.5328
▁San	-10.5341
▁interview	-10.5347
▁abuse	-10.5352
▁Rob	-10.5362
▁surreal	-10.5367
▁execution	-10.5368
▁Wilson	-10.5368
▁blend	-10.5371
log	-10.5371
▁Watching	-10.5378
▁Never	-10.5383
▁Sadly	-10.5385
▁allows	-10.5389
▁inner	-10.539
▁Dur	-10.5403
az	-10.5411
written	-10.5418
Why	-10.5418
TV	-10.5421
▁fits	-10.5421
▁atrocious	-10.5423
▁struggling	-10.5423
▁baseball	-10.5423
▁heaven	-10.5426
▁training	-10.5427
▁depicted	-10.5428
▁Ta	-10.5428
▁broken	-10.5433
▁remain	-10.5433
▁Te	-10.5434
▁levels	-10.5438
ual	-10.5451
▁makeup	-10.5457
ren	-10.5458
▁largely	-10.5461
▁sudden	-10.5462
▁Mor	-10.5463
writer	-10.5464
uring	-10.5472
▁sword	-10.5478
▁treasure	-10.5478
▁court	-10.5478
▁prevent	-10.5478
▁uninteresting	-10.5478
▁Sinatra	-10.5481
▁Mac	-10.5483
▁obsessed	-10.5486
die	-10.5499
▁min	-10.5503
▁viewed	-10.5504
▁Avoid	-10.5508
▁shocked	-10.5512
ai	-10.5513
▁angles	-10.5532
▁Texas	-10.5533
▁false	-10.5533
▁Irish	-10.5533
▁Powell	-10.5534
▁criticism	-10.5534
▁private	-10.5536
▁bus	-10.5542
▁Page	-10.5544
▁Any	-10.5544
▁scale	-10.5546
losing	-10.556
▁n	-10.5564
▁structure	-10.5571
▁sequels	-10.5571
▁Roy	-10.5575
▁praise	-10.5576
ka	-10.5577
▁suffers	-10.5581
▁ignore	-10.5583
▁repeated	-10.5589
▁Drew	-10.5591
▁hint	-10.5591
▁touches	-10.5597
▁Ga	-10.5599
end	-10.5609
▁cares	-10.5617
▁walked	-10.5632
▁inept	-10.5641
▁ma	-10.5642
▁Louis	-10.5644
▁task	-10.5644
▁grave	-10.5647
▁drop	-10.5653
▁Again	-10.5655
ana	-10.5659
▁teenagers	-10.566
▁Are	-10.5667
▁sole	-10.5671
ker	-10.5677
▁monsters	-10.568
▁provided	-10.568
▁Ted	-10.5687
▁believed	-10.569
ze	-10.5694
Anyway	-10.5697
▁king	-10.5704
▁combined	-10.5713
▁erotic	-10.5716
▁inter	-10.5716
▁spoilers	-10.5718
▁handled	-10.5718
▁Hill	-10.5725
▁learns	-10.5727
▁format	-10.5728
▁Cat	-10.5729
▁Wars	-10.5731
▁bomb	-10.5736
▁shape	-10.574
▁focused	-10.5744
including	-10.5754
▁eight	-10.5755
▁base	-10.5757
▁Warner	-10.5759
▁accents	-10.576
▁Caine	-10.5761
▁Saturday	-10.5764
▁cartoons	-10.5767
▁position	-10.5768
▁versions	-10.5774
▁Being	-10.5777
ville	-10.5777
▁Ja	-10.5781
▁Roger	-10.5812
▁VERY	-10.5814
▁prior	-10.5814
▁contemporary	-10.5815
▁brave	-10.5818
▁figured	-10.5824
▁Oliver	-10.5826
▁Brad	-10.5826
▁rap	-10.5826
Co	-10.5828
▁suffer	-10.5836
▁Fe	-10.5846
ue	-10.585
▁na	-10.5851
▁fool	-10.5852
▁Grant	-10.5854
▁Da	-10.5859
▁previously	-10.5863
▁Brothers	-10.5863
▁multiple	-10.5864
▁suck	-10.5864
watch	-10.5869
▁bodies	-10.5871
▁department	-10.5871
▁forgettable	-10.5872
▁weekend	-10.5872
▁MST	-10.5872
▁frightening	-10.5874
▁punch	-10.5874
▁Far	-10.5875
▁exact	-10.5876
▁movement	-10.5887
▁idiot	-10.5904
▁hanging	-10.5905
ji	-10.5907
▁Dog	-10.5916
▁bothered	-10.5918
▁fly	-10.592
▁covered	-10.5922
nk	-10.5923
▁chose	-10.5924
▁melodrama	-10.5928
▁reputation	-10.5928
▁surface	-10.5929
▁Pitt	-10.5929
▁continuity	-10.593
▁service	-10.593
▁rough	-10.5932
▁frankly	-10.5932
▁park	-10.5936
▁Actually	-10.5938
▁suspenseful	-10.5939
▁weeks	-10.5943
▁term	-10.5964
iest	-10.5978
▁convince	-10.598
han	-10.5981
▁narration	-10.5986
▁supernatural	-10.5986
▁nude	-10.5987
▁Freeman	-10.5987
▁Island	-10.5993
▁Baby	-10.5999
▁gain	-10.6027
▁occasional	-10.6031
▁charge	-10.6034
▁warn	-10.6036
▁Stan	-10.6041
▁propaganda	-10.6044
▁Sunday	-10.6048
▁wear	-10.6049
▁sensitive	-10.6056
nal	-10.6056
▁lo	-10.6058
▁States	-10.6068
lly	-10.6068
***	-10.6075
▁Car	-10.6076
pl	-10.6079
▁initial	-10.6088
too	-10.6091
ver	-10.6097
0	-10.6099
▁unconvincing	-10.6103
▁worthwhile	-10.6104
▁wake	-10.6104
▁speaks	-10.6105
▁California	-10.6106
▁screenwriter	-10.6106
▁truck	-10.6106
▁virtually	-10.6107
▁downright	-10.6107
▁accidentally	-10.6108
▁amazed	-10.6108
▁according	-10.6108
▁Evil	-10.6111
▁Su	-10.6114
▁politics	-10.6116
den	-10.6116
▁serves	-10.6118
▁breath	-10.612
▁belief	-10.6121
▁subtitles	-10.6123
▁Ex	-10.6125
▁faithful	-10.6136
ily	-10.6139
▁crying	-10.6149
▁buying	-10.615
ham	-10.6155
pre	-10.6158
▁twisted	-10.6159
▁Fu	-10.6162
▁mainstream	-10.6166
▁insight	-10.6168
▁Captain	-10.6168
▁dirty	-10.617
▁latest	-10.6171
Le	-10.6176
▁Cinderella	-10.6176
▁imp	-10.6179
▁object	-10.6179
boy	-10.6183
▁tradition	-10.6191
val	-10.6195
ath	-10.6198
▁surprises	-10.6202
▁equal	-10.6206
▁proud	-10.6206
▁prime	-10.6214
▁Devil	-10.6217
▁river	-10.6221
▁massive	-10.6222
▁environment	-10.6223
▁Moon	-10.6224
▁committed	-10.6225
ight	-10.6228
▁Especially	-10.6228
▁Sometimes	-10.6229
▁Victor	-10.6231
▁vs	-10.6235
▁mistakes	-10.6236
Yes	-10.6237
▁holding	-10.6237
▁performed	-10.6243
▁dollars	-10.6248
Ra	-10.6254
▁streets	-10.6256
▁pan	-10.6274
▁YOU	-10.6279
▁stomach	-10.628
▁invite	-10.6287
▁Look	-10.6288
▁Max	-10.6289
▁haunting	-10.6289
▁skill	-10.6296
▁Girl	-10.6296
ette	-10.6297
▁Take	-10.6297
▁vampires	-10.6304
▁None	-10.6305
▁25	-10.6305
▁Much	-10.6305
▁closer	-10.631
▁protect	-10.6312
▁Thank	-10.6326
▁Gu	-10.6331
▁blow	-10.6331
▁tight	-10.6331
▁Bond	-10.6334
▁BBC	-10.634
▁afternoon	-10.634
▁stereotypical	-10.634
▁interpretation	-10.6341
▁Lugosi	-10.6345
▁Pre	-10.6345
▁multi	-10.6348
▁stayed	-10.635
▁u	-10.6362
style	-10.6367
ombie	-10.637
▁renting	-10.6375
▁express	-10.6382
▁Have	-10.6384
ists	-10.6393
▁Jon	-10.6395
▁speech	-10.6395
▁MOVIE	-10.6396
▁spin	-10.6396
ks	-10.6396
▁MGM	-10.6401
▁Hong	-10.6402
hearted	-10.6405
▁Apparently	-10.6407
▁claims	-10.6411
▁rules	-10.6417
▁comical	-10.642
dding	-10.6421
▁talks	-10.6431
▁paced	-10.6433
▁Hell	-10.6433
▁evening	-10.6434
▁offered	-10.6441
aw	-10.6449
law	-10.645
get	-10.6455
▁slapstick	-10.6461
From	-10.6462
▁critical	-10.6462
▁appreciated	-10.6464
▁haunted	-10.6468
▁castle	-10.6472
▁tear	-10.6481
10	-10.6497
▁experienced	-10.65
▁delight	-10.6505
▁heck	-10.6517
▁sympathy	-10.6522
▁Ron	-10.6522
▁werewolf	-10.6523
▁hire	-10.6524
Just	-10.6524
▁Lincoln	-10.6525
▁gritty	-10.6525
▁guilty	-10.653
▁Art	-10.6533
ide	-10.6538
ou	-10.6547
▁dozen	-10.6551
ugh	-10.6556
called	-10.6558
▁Finally	-10.6566
yes	-10.6568
▁End	-10.657
EN	-10.6572
▁voices	-10.6574
▁arm	-10.6574
▁intellectual	-10.6575
▁magical	-10.6576
▁trilogy	-10.6583
▁1990	-10.6584
▁chair	-10.6584
▁1960	-10.6584
▁spite	-10.6587
wa	-10.6588
▁mature	-10.659
▁required	-10.6592
▁focuses	-10.6594
▁experiences	-10.6599
▁fu	-10.6604
ek	-10.6605
▁device	-10.6609
▁witness	-10.6609
▁walks	-10.6623
lon	-10.6637
▁India	-10.6638
▁United	-10.6645
▁jail	-10.6645
▁football	-10.6646
except	-10.6648
▁Branagh	-10.6649
▁encounter	-10.6654
▁Later	-10.6659
▁cutting	-10.666
▁plans	-10.666
ible	-10.6662
▁driver	-10.6666
▁repeat	-10.6667
▁directly	-10.6676
▁featured	-10.6678
▁awards	-10.6682
ically	-10.6684
ations	-10.6688
ship	-10.6688
▁dare	-10.6691
ised	-10.6696
very	-10.6696
▁description	-10.6707
▁understood	-10.6707
▁teeth	-10.6708
▁indie	-10.6713
▁sounded	-10.6713
▁Out	-10.6714
▁Mrs	-10.6719
▁birth	-10.6719
▁Halloween	-10.672
ory	-10.6722
▁po	-10.6723
▁besides	-10.6723
gan	-10.6729
TH	-10.6734
ization	-10.6735
▁screening	-10.6736
▁conversation	-10.6736
▁Mu	-10.6741
▁ludicrous	-10.6754
▁reveal	-10.6756
Man	-10.6763
▁obnoxious	-10.677
▁blah	-10.6771
▁stolen	-10.6772
dimensional	-10.6772
Another	-10.6773
▁overcome	-10.6775
▁Susan	-10.6778
▁matters	-10.678
▁About	-10.6785
▁Sha	-10.6788
▁delivery	-10.6789
ical	-10.6793
▁lie	-10.6795
▁Mad	-10.6799
▁hip	-10.6799
port	-10.6809
▁topic	-10.681
ill	-10.6812
▁page	-10.6813
▁separate	-10.6817
▁k	-10.6826
ile	-10.6831
▁everywhere	-10.6837
his	-10.6837
▁fictional	-10.6839
▁Rachel	-10.684
▁:)	-10.6841
▁Patrick	-10.6843
▁Dean	-10.6848
▁bag	-10.6849
chi	-10.686
▁paying	-10.6865
):	-10.6865
▁core	-10.6867
▁mountain	-10.6867
▁Pi	-10.6873
▁maintain	-10.688
ade	-10.688
▁listening	-10.6881
▁rank	-10.6885
▁convey	-10.6885
fest	-10.6887
len	-10.6891
▁cruel	-10.6895
play	-10.6895
▁passing	-10.6896
▁freedom	-10.6897
Although	-10.69
▁complicated	-10.6901
▁Donald	-10.6903
Go	-10.6904
▁Dream	-10.6905
Mr	-10.691
▁Old	-10.6915
▁Had	-10.6916
▁Guy	-10.6919
▁Brooks	-10.6922
▁im	-10.693
▁designed	-10.6931
▁Kill	-10.6934
▁Christ	-10.6946
ps	-10.695
▁Si	-10.695
▁heavily	-10.696
▁international	-10.696
▁Vietnam	-10.6962
▁Lu	-10.6964
▁presents	-10.6964
shi	-10.6972
▁Johnson	-10.6972
▁Am	-10.6973
▁USA	-10.6973
▁scares	-10.6982
sen	-10.6984
▁Long	-10.6986
▁realizes	-10.699
▁patient	-10.6995
▁reference	-10.6997
▁Blue	-10.6999
▁pulls	-10.6999
▁creatures	-10.7002
▁touched	-10.7006
IC	-10.7007
▁17	-10.701
act	-10.7013
▁extras	-10.7014
▁gas	-10.7021
tter	-10.7023
▁Hoffman	-10.7024
▁LOVE	-10.7024
▁chief	-10.7024
▁gruesome	-10.7024
▁sheriff	-10.7024
▁facial	-10.7024
▁disbelief	-10.7024
▁Mexican	-10.7024
▁mass	-10.7027
▁abandoned	-10.7034
▁experiment	-10.7059
▁m	-10.7059
van	-10.706
right	-10.7061
ny	-10.7063
run	-10.7075
starred	-10.7082
▁Emma	-10.7086
▁horrific	-10.7088
▁funnier	-10.7088
▁breathtaking	-10.7088
▁contact	-10.7088
something	-10.7093
▁colors	-10.7095
▁nation	-10.7096
▁blown	-10.7098
▁reminiscen	-10.7105
story	-10.7105
▁teens	-10.7106
▁bitter	-10.7107
▁succeed	-10.7111
▁campy	-10.7115
action	-10.7119
▁handle	-10.7123
CH	-10.7126
▁flashback	-10.7128
▁16	-10.713
▁significant	-10.7138
▁sun	-10.714
▁border	-10.7153
▁racist	-10.7153
▁contract	-10.7153
▁network	-10.7153
▁broad	-10.7154
ON	-10.717
▁hired	-10.7175
▁LA	-10.7178
▁peace	-10.7195
more	-10.72
pp	-10.7202
▁Julia	-10.7206
existent	-10.7208
▁decades	-10.7209
▁connect	-10.721
▁Victoria	-10.7215
▁Julie	-10.7218
▁cheese	-10.7219
▁fabulous	-10.7219
▁pregnant	-10.7219
▁strict	-10.7219
▁basis	-10.7219
▁kung	-10.7219
▁Way	-10.7219
▁imagery	-10.722
▁/>*	-10.722
▁Bourne	-10.7222
▁quirky	-10.7222
▁Otherwise	-10.7228
▁Friday	-10.7229
▁Master	-10.723
▁upset	-10.7233
▁Law	-10.7243
▁mindless	-10.7247
ties	-10.7248
▁naturally	-10.7256
gy	-10.7259
▁Ya	-10.7262
▁solve	-10.7268
jo	-10.7271
▁guard	-10.7277
▁summary	-10.7285
▁miscast	-10.7285
▁ticket	-10.7285
▁China	-10.7285
▁Sky	-10.7287
▁security	-10.7289
▁storytelling	-10.729
▁Hardy	-10.7293
▁changing	-10.7294
▁Space	-10.7302
▁jerk	-10.7305
ford	-10.7306
▁forgot	-10.7307
▁originality	-10.731
▁desperately	-10.7311
!!!!!	-10.7311
▁challenge	-10.7311
RA	-10.7321
Let	-10.7328
▁native	-10.7328
▁forth	-10.7332
▁text	-10.7341
▁stylish	-10.7351
▁Sandler	-10.7351
▁Cooper	-10.7353
▁authentic	-10.7354
wood	-10.7356
▁Philip	-10.736
▁sentimental	-10.7363
▁settings	-10.7365
▁Ned	-10.7371
▁dig	-10.7378
▁deeper	-10.7379
put	-10.739
▁effectively	-10.7397
▁Grand	-10.7398
▁balance	-10.7409
▁inspiration	-10.7414
▁insist	-10.7415
▁advantage	-10.7417
▁variety	-10.7417
▁marvelous	-10.7418
▁closing	-10.7418
▁legendary	-10.7418
▁Baker	-10.742
where	-10.742
▁Sidney	-10.7422
▁halfway	-10.7424
▁cultural	-10.7424
▁theory	-10.7426
Al	-10.7433
▁carried	-10.7433
cut	-10.7442
Who	-10.7454
UN	-10.7468
▁Per	-10.7478
▁em	-10.7478
▁ashamed	-10.7485
▁Seagal	-10.7488
▁lonely	-10.749
▁Sarah	-10.7492
").	-10.7497
By	-10.7499
▁status	-10.7504
▁Sir	-10.7504
▁rule	-10.7504
▁terror	-10.7514
▁driven	-10.7517
▁serve	-10.7517
▁pretend	-10.7526
▁sum	-10.7527
ko	-10.7527
pin	-10.7535
nce	-10.7535
▁Music	-10.7545
class	-10.7545
▁Super	-10.7545
▁burn	-10.7546
▁strip	-10.7551
▁Mexico	-10.7552
▁poignant	-10.7552
▁extent	-10.7552
▁measure	-10.7552
▁goofy	-10.7558
▁buddy	-10.7559
relatively	-10.7559
▁North	-10.7559
▁explains	-10.7563
▁mildly	-10.7564
▁stays	-10.7565
▁Alice	-10.7567
▁Yeah	-10.7568
▁spoiler	-10.757
▁drinking	-10.7576
▁destroyed	-10.7581
"),	-10.7585
room	-10.7585
za	-10.7588
▁Sch	-10.7592
▁stretch	-10.7598
▁killers	-10.7613
▁realise	-10.7613
▁President	-10.762
▁benefit	-10.762
▁Larry	-10.7628
▁Elizabeth	-10.7629
▁beloved	-10.7629
▁prepared	-10.7635
Ro	-10.7641
▁l	-10.7644
rr	-10.7654
▁placed	-10.7655
▁cousin	-10.7689
▁favorites	-10.7689
▁Army	-10.7689
▁Matthau	-10.7692
▁Second	-10.7693
▁embarrassed	-10.7693
▁dude	-10.7694
▁Dennis	-10.7698
▁spy	-10.77
tan	-10.7701
▁Basically	-10.7706
▁relie	-10.7708
lock	-10.771
▁warned	-10.7713
▁le	-10.7719
▁enjoying	-10.772
▁Bu	-10.7728
▁plague	-10.774
hr	-10.774
▁Movies	-10.7742
▁condition	-10.7744
▁extraordinary	-10.7757
▁obsession	-10.7757
▁introduction	-10.7757
▁assistant	-10.7758
▁seek	-10.7758
▁Tracy	-10.7762
▁presentation	-10.7763
▁criminals	-10.7767
▁Besides	-10.7774
tz	-10.7778
ky	-10.7794
▁choices	-10.7798
▁ra	-10.7799
fer	-10.7812
▁shut	-10.7816
▁classics	-10.7825
▁holiday	-10.7827
▁lazy	-10.7827
▁striking	-10.7827
▁turkey	-10.7827
▁trapped	-10.7827
▁Sutherland	-10.783
▁quest	-10.7835
Michael	-10.7837
▁wreck	-10.7839
▁caring	-10.784
▁believes	-10.7843
▁properly	-10.7849
..."	-10.785
▁artists	-10.7851
ther	-10.7854
lic	-10.7859
▁via	-10.786
OK	-10.7864
▁raise	-10.7869
▁disc	-10.7869
ino	-10.7877
▁ro	-10.7883
ress	-10.7889
hero	-10.7896
▁timing	-10.7897
▁universe	-10.7897
▁Lost	-10.7905
ising	-10.7906
▁Rogers	-10.7908
ink	-10.7917
▁Three	-10.7918
▁helping	-10.7919
▁crash	-10.7919
▁Back	-10.792
▁Sho	-10.7921
▁Add	-10.7925
▁nose	-10.7945
▁rolling	-10.7946
▁throwing	-10.7955
▁comedian	-10.796
ups	-10.7963
▁trick	-10.7963
RE	-10.7964
▁honor	-10.7967
▁horrendous	-10.7967
▁magazine	-10.7967
▁tongue	-10.7967
▁chain	-10.7968
▁Miller	-10.7971
▁Bar	-10.7974
▁tiny	-10.7981
▁stupidity	-10.7981
▁pin	-10.7987
town	-10.7994
▁Jay	-10.7999
▁Your	-10.8003
qu	-10.8008
▁graphics	-10.8009
▁gag	-10.8009
lar	-10.8011
wise	-10.8019
▁advance	-10.8026
ain	-10.803
▁shark	-10.8038
▁sleazy	-10.8038
▁queen	-10.8038
▁outrageous	-10.8038
▁Stanwyck	-10.8041
▁corrupt	-10.8041
▁retarded	-10.8041
▁deaths	-10.8045
▁parent	-10.8048
▁pool	-10.8049
du	-10.8056
▁scream	-10.8059
▁answers	-10.8061
▁Live	-10.8064
▁ideal	-10.8073
Bo	-10.8075
▁cap	-10.8077
▁related	-10.8082
ano	-10.8085
▁Age	-10.8087
▁deadly	-10.8088
▁carrie	-10.8095
read	-10.8097
▁relative	-10.8101
▁guessing	-10.8107
ending	-10.811
▁portrait	-10.811
▁uncomfortable	-10.811
▁personalities	-10.8111
▁views	-10.8111
▁mob	-10.8119
▁everyday	-10.8119
▁replaced	-10.8119
▁ironic	-10.812
▁spoken	-10.8121
▁Definitely	-10.8125
▁enjoyment	-10.8125
▁quote	-10.8127
tal	-10.8127
▁sisters	-10.8128
look	-10.813
▁fairy	-10.8136
▁mentally	-10.814
ica	-10.8145
▁reveals	-10.8147
wi	-10.8149
▁drink	-10.8151
ery	-10.8156
▁learning	-10.8158
IT	-10.8167
▁neat	-10.8167
▁Ken	-10.8168
hu	-10.8174
▁triumph	-10.8182
▁concert	-10.8182
▁urban	-10.8182
▁specific	-10.8182
▁Foster	-10.8182
▁oppos	-10.8182
▁countries	-10.8182
▁block	-10.8182
▁flop	-10.8183
board	-10.8186
▁sold	-10.8187
▁8/10	-10.8189
▁achievement	-10.8194
▁raised	-10.8199
▁Gar	-10.8201
hood	-10.8203
▁broke	-10.8205
▁dress	-10.8207
!),	-10.8207
hard	-10.8207
▁bound	-10.8214
▁Home	-10.8224
▁mask	-10.8232
▁successfully	-10.8232
▁defend	-10.8233
▁tune	-10.8234
away	-10.825
▁tree	-10.8252
▁forest	-10.8252
▁confusion	-10.8254
▁plastic	-10.8254
▁Channel	-10.8254
▁lust	-10.8255
▁mansion	-10.8255
▁laid	-10.8256
▁2000	-10.8257
▁revolves	-10.8258
▁fish	-10.8258
▁Holmes	-10.8258
▁Blair	-10.8261
Mi	-10.8264
▁succeeds	-10.8281
▁wave	-10.8286
▁du	-10.8292
▁attacked	-10.8301
▁ham	-10.8312
ries	-10.8321
▁neighbor	-10.8325
▁craft	-10.8331
▁Jessica	-10.8335
▁Leslie	-10.8337
▁sorts	-10.8341
▁EVER	-10.8342
▁Award	-10.8343
▁ch	-10.8359
eg	-10.8359
▁command	-10.8361
▁picks	-10.8367
set	-10.8375
▁atmospheric	-10.8377
▁90'	-10.8381
ax	-10.8382
▁wears	-10.8387
▁Mann	-10.8389
▁essential	-10.8389
▁***	-10.8396
ip	-10.8396
▁disagree	-10.8399
▁credibility	-10.8401
▁creation	-10.8401
▁FBI	-10.8401
▁happiness	-10.8401
▁disease	-10.8401
▁neighborhood	-10.8401
▁gripping	-10.8401
▁pen	-10.8403
▁Ralph	-10.8406
▁Chuck	-10.8409
▁calling	-10.8409
▁Nazi	-10.8413
▁Cinema	-10.8413
comedy	-10.8414
Paul	-10.8415
▁chilling	-10.8416
gar	-10.8419
▁angle	-10.8419
50	-10.842
▁grim	-10.8422
▁Unlike	-10.8423
ES	-10.8431
▁causes	-10.8432
▁da	-10.8434
▁weapons	-10.8438
SE	-10.8441
wing	-10.8443
▁demon	-10.8445
genuinely	-10.845
▁hey	-10.8452
▁carrying	-10.8452
▁amazingly	-10.8454
▁clips	-10.8456
har	-10.8471
nny	-10.8473
▁Chaplin	-10.8475
▁necessarily	-10.8475
▁firm	-10.8475
▁endearing	-10.8475
▁Flynn	-10.8475
▁sinister	-10.8475
▁fortune	-10.8475
lit	-10.8478
▁revolution	-10.8478
▁blockbuster	-10.8478
▁Burton	-10.8478
▁Kurt	-10.8481
▁corner	-10.8488
▁Power	-10.8489
▁thrilling	-10.8493
▁lay	-10.8497
▁tense	-10.8499
▁expressions	-10.8504
▁react	-10.8513
▁weight	-10.8531
▁Th	-10.8546
▁Reed	-10.8546
▁Bollywood	-10.8549
▁Nelson	-10.8549
▁imaginative	-10.8549
▁intensity	-10.8549
▁terrifying	-10.8549
▁Elvis	-10.8549
▁alright	-10.8549
▁Derek	-10.8549
▁REALLY	-10.8549
▁trite	-10.855
▁medical	-10.855
▁stunt	-10.8551
▁flawless	-10.8552
▁Widmark	-10.8552
▁BAD	-10.8553
▁ru	-10.8554
wn	-10.8557
▁Claire	-10.8561
▁friendly	-10.8561
▁Sullivan	-10.8564
▁connected	-10.857
▁shower	-10.8575
part	-10.8576
▁metal	-10.8581
gh	-10.8585
▁raw	-10.8586
aka	-10.8588
▁complain	-10.859
▁idiotic	-10.8593
EL	-10.8596
▁breaking	-10.8604
▁bond	-10.8604
▁purely	-10.8605
▁boot	-10.8607
coming	-10.8611
▁1930	-10.8611
ail	-10.8622
rie	-10.8623
▁wanna	-10.8624
▁appalling	-10.8624
▁dubbing	-10.8624
▁ensemble	-10.8624
▁River	-10.8626
▁cynical	-10.8628
▁colour	-10.8628
▁incident	-10.8629
▁2.	-10.863
St	-10.8631
▁throws	-10.8634
▁determined	-10.8634
▁True	-10.8638
horror	-10.864
▁Lake	-10.8648
▁Full	-10.8655
▁national	-10.8663
▁insulting	-10.8663
▁0	-10.8666
▁Lou	-10.8678
▁gift	-10.8682
▁struggles	-10.8683
▁combine	-10.8683
▁guts	-10.8684
▁complaint	-10.8696
▁manager	-10.8697
▁Curtis	-10.87
▁investigate	-10.87
▁jungle	-10.87
▁broadcast	-10.87
▁refer	-10.8701
▁Italy	-10.8703
▁slap	-10.8705
▁Satan	-10.8707
▁wealthy	-10.8707
▁WWII	-10.8708
▁month	-10.8708
▁annoyed	-10.8709
▁East	-10.871
known	-10.8715
▁Hunter	-10.8716
▁served	-10.8719
▁Ever	-10.872
Star	-10.872
from	-10.8722
▁Someone	-10.8723
▁fianc	-10.8725
▁Ver	-10.8726
▁Andrews	-10.8733
▁oil	-10.8736
human	-10.8737
▁lights	-10.8742
dom	-10.875
ini	-10.8754
ose	-10.8757
▁cave	-10.8763
▁sleeping	-10.877
▁Soon	-10.8776
▁document	-10.8776
▁Arnold	-10.8777
▁Cusack	-10.8777
▁credible	-10.8777
▁franchise	-10.8777
▁aired	-10.8779
▁nightmare	-10.8786
▁locked	-10.8787
▁Ghost	-10.8788
▁Police	-10.879
▁meaningful	-10.8791
AD	-10.8796
▁hill	-10.88
▁suffered	-10.8801
ov	-10.8802
▁Make	-10.8803
▁wishes	-10.8805
▁ego	-10.8807
liners	-10.8812
▁Sea	-10.8816
▁press	-10.8817
▁Carl	-10.8828
▁fix	-10.8837
▁sacrifice	-10.8838
▁escapes	-10.8841
▁Die	-10.8845
▁explicit	-10.8853
▁splendid	-10.8853
▁eerie	-10.8854
▁Jewish	-10.8854
▁Walken	-10.8854
▁lovable	-10.8854
▁Bette	-10.8854
▁7/10	-10.8854
▁interviews	-10.8858
▁Stanley	-10.8861
ok	-10.8863
▁Heaven	-10.8864
▁En	-10.8866
▁Witch	-10.8866
▁Hanks	-10.8868
▁sings	-10.887
when	-10.8871
▁mere	-10.8873
tte	-10.8875
▁exists	-10.8889
▁beach	-10.8918
▁creep	-10.892
▁lessons	-10.8922
▁Rain	-10.8923
▁mu	-10.8924
▁flaw	-10.8924
▁fond	-10.8929
▁Universal	-10.8931
▁superficial	-10.8931
▁identify	-10.8931
▁Duke	-10.8934
▁Family	-10.8938
▁Probably	-10.894
▁Michelle	-10.894
▁commit	-10.8941
▁hoped	-10.8943
▁tied	-10.8944
▁trial	-10.8944
▁flawed	-10.8949
▁pack	-10.8956
▁attempting	-10.8961
▁disappoint	-10.8965
▁aunt	-10.8973
▁Gun	-10.8974
▁drawing	-10.8974
▁li	-10.8975
▁robot	-10.8983
▁sin	-10.8985
▁rid	-10.8986
▁Burt	-10.8991
done	-10.8994
▁competent	-10.8997
characterization	-10.8997
▁tea	-10.9
▁60'	-10.9003
▁nowadays	-10.9009
▁racism	-10.9009
▁smoke	-10.9009
▁Britain	-10.9009
▁1940	-10.9009
▁hack	-10.901
▁toilet	-10.9011
after	-10.9012
▁portion	-10.9013
▁tribute	-10.9013
▁size	-10.9014
▁greater	-10.9018
▁fallen	-10.9019
▁cameos	-10.902
▁wins	-10.9022
point	-10.9023
▁hooked	-10.9025
▁shines	-10.9025
rin	-10.9037
rick	-10.9048
aged	-10.905
▁fl	-10.905
ude	-10.9051
▁bull	-10.9059
▁confront	-10.906
▁worry	-10.9062
▁troubled	-10.907
▁adventures	-10.9076
▁ratings	-10.9078
▁Eva	-10.9086
▁library	-10.9088
▁president	-10.9088
▁sneak	-10.9088
▁ultra	-10.9088
▁dragged	-10.9088
▁stiff	-10.9088
▁Glover	-10.9088
▁opened	-10.9089
are	-10.909
▁expensive	-10.9091
▁performers	-10.9093
▁ice	-10.9094
▁incoherent	-10.9096
▁storm	-10.9105
▁behave	-10.9106
▁com	-10.9113
▁Angel	-10.9115
▁musicals	-10.9118
▁figures	-10.9126
▁sa	-10.9131
See	-10.9135
▁admire	-10.9137
▁searching	-10.9139
▁Del	-10.9145
...)	-10.9147
▁Hal	-10.915
mate	-10.9151
▁showcase	-10.9163
▁enemy	-10.9167
▁aliens	-10.9167
▁contribute	-10.9167
▁resort	-10.9168
▁attraction	-10.917
▁editor	-10.917
▁discussion	-10.9171
▁boredom	-10.9172
▁arrives	-10.9173
▁Brando	-10.9174
▁colorful	-10.9179
▁Check	-10.918
cast	-10.9186
▁hundred	-10.9186
▁journalist	-10.9187
▁guide	-10.9187
▁Acting	-10.9195
▁Does	-10.9196
▁afford	-10.9201
▁Ball	-10.9204
▁Dar	-10.9215
rry	-10.9219
▁protagonists	-10.9221
hy	-10.9222
ada	-10.9231
▁General	-10.9241
▁charisma	-10.9247
▁Bettie	-10.9247
▁daily	-10.9247
▁underground	-10.9248
▁ripped	-10.9248
▁melodramatic	-10.9248
▁basement	-10.9249
▁Grace	-10.9249
▁sexuality	-10.9254
hand	-10.9255
▁happily	-10.9257
▁jumps	-10.9257
▁frequently	-10.9257
▁Helen	-10.9258
▁refuses	-10.926
▁shift	-10.926
▁letting	-10.9265
▁mirror	-10.9267
▁Mon	-10.9267
▁neck	-10.9267
minute	-10.9268
▁Give	-10.9272
des	-10.9275
▁se	-10.9279
▁notch	-10.928
aging	-10.9282
▁minds	-10.9283
▁Our	-10.9283
▁homeless	-10.9284
gue	-10.9284
▁checking	-10.9286
▁Buck	-10.9299
ace	-10.9308
▁enter	-10.9308
▁beating	-10.9313
yn	-10.9318
▁Catholic	-10.9328
▁throat	-10.9328
▁vacation	-10.9328
▁virus	-10.9328
▁Falk	-10.9328
▁bridge	-10.9328
▁backdrop	-10.9329
▁1.	-10.9329
▁Cor	-10.9332
▁moon	-10.9334
▁established	-10.9337
▁perfection	-10.9344
grade	-10.9348
▁Seriously	-10.9349
ates	-10.936
▁mate	-10.9363
▁depend	-10.9365
▁kinds	-10.937
▁intention	-10.9372
▁belongs	-10.9373
vin	-10.9377
▁split	-10.9378
▁hype	-10.9388
▁dogs	-10.9392
qua	-10.9396
▁stunts	-10.9405
▁Reynolds	-10.9409
▁professor	-10.9409
▁Burns	-10.941
▁flight	-10.9411
▁Candy	-10.9411
▁Spielberg	-10.9412
▁countless	-10.9412
▁explore	-10.9416
▁shake	-10.9416
▁Lisa	-10.942
▁pitch	-10.942
▁dear	-10.9421
▁lying	-10.9422
▁Val	-10.9425
▁aged	-10.9428
▁Hard	-10.9431
▁Min	-10.9437
▁develops	-10.9445
▁accepted	-10.9449
▁SPOILERS	-10.946
▁flash	-10.9463
▁upper	-10.9464
key	-10.947
▁Hu	-10.947
▁notable	-10.9476
▁profound	-10.9476
▁guilt	-10.9481
▁greatly	-10.9482
▁ghosts	-10.9486
▁rain	-10.9488
form	-10.9488
▁ca	-10.9488
▁snow	-10.949
▁Gabriel	-10.9491
▁exercise	-10.9491
▁hiding	-10.9491
▁scheme	-10.9491
▁argue	-10.9491
▁Woman	-10.9492
▁revelation	-10.9492
▁**	-10.9492
▁Cook	-10.9494
▁Heston	-10.9496
▁Real	-10.9501
ella	-10.9502
only	-10.9502
▁Something	-10.9503
▁bath	-10.9508
▁practice	-10.951
▁Sorry	-10.9515
▁shadow	-10.9522
▁24	-10.9525
list	-10.9533
▁thousands	-10.9538
iff	-10.954
▁critic	-10.955
▁hundreds	-10.9554
sha	-10.9558
place	-10.9564
▁painting	-10.9566
▁Hudson	-10.9574
▁innocence	-10.9574
▁response	-10.9574
▁installment	-10.9574
lie	-10.9576
▁prostitute	-10.9578
▁Vincent	-10.9583
▁Obviously	-10.9585
▁Hi	-10.9585
▁Dragon	-10.9586
ez	-10.9589
night	-10.9591
▁/>(	-10.9592
▁Play	-10.9593
▁Meanwhile	-10.9597
Good	-10.9597
why	-10.9598
▁technique	-10.9603
▁crafted	-10.9609
▁pun	-10.9613
ST	-10.9613
▁loser	-10.9613
▁bin	-10.9615
▁teach	-10.9619
▁Ch	-10.9628
▁persona	-10.963
▁sky	-10.963
dge	-10.9634
▁novels	-10.9637
▁seeking	-10.9639
▁settle	-10.9642
pping	-10.9647
▁miles	-10.9648
▁official	-10.9649
▁sexually	-10.9651
▁link	-10.9652
▁courage	-10.9656
▁knife	-10.9657
▁reunion	-10.9657
▁newspaper	-10.9657
▁unforgettable	-10.9657
hether	-10.9658
▁beg	-10.9658
air	-10.9659
▁tour	-10.9659
▁label	-10.966
▁proof	-10.966
girl	-10.966
▁attached	-10.9661
▁irony	-10.9662
▁Matrix	-10.9663
▁concerns	-10.9666
▁urge	-10.9667
▁represent	-10.9668
▁examples	-10.9669
▁Son	-10.967
▁larger	-10.9674
▁darkness	-10.9676
▁initially	-10.9679
▁Return	-10.9681
tch	-10.9685
▁segments	-10.969
Mo	-10.969
▁hole	-10.9692
LA	-10.9701
▁minimal	-10.9702
▁wondered	-10.9713
▁intrigue	-10.9724
▁Maria	-10.9733
▁spiritual	-10.9741
▁Hamilton	-10.9741
▁School	-10.9741
▁dinner	-10.9741
▁homage	-10.9741
▁ABC	-10.9741
▁wicked	-10.9741
▁transition	-10.9741
▁Ritter	-10.9741
▁Carrey	-10.9742
▁stress	-10.9742
▁1/10	-10.9743
▁entry	-10.9743
▁function	-10.9744
▁intent	-10.9745
▁Fire	-10.975
▁PG	-10.9753
▁plant	-10.9755
▁legs	-10.9757
Mar	-10.9761
▁Along	-10.9764
▁lesser	-10.9765
David	-10.9766
cal	-10.9774
▁horses	-10.9809
▁tremendous	-10.981
▁belong	-10.9814
▁offering	-10.9816
▁goal	-10.9819
▁attacks	-10.9819
MA	-10.9821
▁pointed	-10.9824
UR	-10.9825
▁Lloyd	-10.9826
▁ourselves	-10.9826
▁Point	-10.9826
▁Carol	-10.9826
▁Canada	-10.9826
▁controversial	-10.9828
▁Cox	-10.9828
▁Lucy	-10.983
▁beast	-10.9831
▁Doctor	-10.9838
▁Jake	-10.9839
▁stone	-10.9841
▁Saw	-10.9842
▁fitting	-10.9842
ui	-10.9843
▁dealt	-10.9843
▁useless	-10.9843
▁Ju	-10.9846
▁Laura	-10.985
▁physically	-10.9862
ita	-10.9863
ong	-10.9866
▁drags	-10.987
▁spending	-10.9877
bal	-10.9879
▁tricks	-10.9883
▁Land	-10.9893
▁threat	-10.9899
▁pleased	-10.9908
▁Carpenter	-10.9911
▁Summer	-10.9911
▁Eastwood	-10.9912
▁kidnapped	-10.9912
▁charismatic	-10.9912
▁Science	-10.9912
▁jobs	-10.9915
core	-10.9918
▁Could	-10.9919
▁wannabe	-10.9919
▁hopefully	-10.992
▁Oscars	-10.992
▁Elvira	-10.992
▁adapted	-10.9924
▁drives	-10.9924
/10	-10.9926
▁thrills	-10.9928
▁meat	-10.993
▁Such	-10.9932
▁cheer	-10.9934
▁Ni	-10.9948
US	-10.9948
▁thousand	-10.9949
▁Boll	-10.9953
▁pe	-10.9953
▁hunt	-10.996
signed	-10.9961
▁elaborate	-10.9962
▁techniques	-10.9968
▁cons	-10.9973
▁Mars	-10.9978
▁slight	-10.9984
iv	-10.9986
▁nurse	-10.9998
▁Club	-10.9998
▁rat	-10.9998
▁Know	-10.9998
▁thick	-10.9998
▁Scooby	-11.0003
▁madness	-11.0005
▁Karloff	-11.0005
▁surrounded	-11.0006
▁Consider	-11.0007
"?	-11.0009
▁rushed	-11.0011
▁Grade	-11.0016
table	-11.002
make	-11.0021
▁brand	-11.0025
Maybe	-11.0025
▁Bra	-11.0029
▁daughters	-11.0031
▁bucks	-11.0033
▁unit	-11.0036
▁Book	-11.0038
▁Hat	-11.0039
▁requires	-11.0042
▁Roll	-11.0056
▁stranger	-11.0067
▁fired	-11.0073
▁jealous	-11.0074
▁listed	-11.0078
Ma	-11.0084
▁essence	-11.0084
▁medium	-11.0085
▁spread	-11.0085
▁Catherine	-11.0085
▁tame	-11.0091
▁handful	-11.0093
▁associated	-11.0093
▁forgive	-11.0097
▁strangely	-11.0102
▁dialogs	-11.0103
▁farce	-11.0107
uk	-11.0107
▁Think	-11.0111
video	-11.0112
▁Wild	-11.0125
▁weapon	-11.0128
▁arms	-11.0137
▁fatal	-11.014
▁swear	-11.0147
▁MAN	-11.0147
▁poster	-11.015
▁Hunt	-11.0154
▁push	-11.0165
▁sides	-11.0165
▁Has	-11.0167
200	-11.0168
cho	-11.0171
▁chases	-11.0171
▁favour	-11.0172
▁Felix	-11.0172
▁curiosity	-11.0172
▁montage	-11.0172
▁relevant	-11.0172
▁ruthless	-11.0172
▁cases	-11.0173
▁sidekick	-11.0173
▁hideous	-11.0174
▁acceptable	-11.0176
Li	-11.0176
void	-11.018
▁drivel	-11.0181
▁3/10	-11.0183
▁photographer	-11.0183
▁cup	-11.0184
▁Golden	-11.0184
pot	-11.0185
▁Nightmare	-11.0188
▁busy	-11.0189
▁row	-11.0191
nn	-11.02
Unfortunately	-11.0201
oe	-11.0208
▁sends	-11.0209
face	-11.021
▁packed	-11.021
▁shy	-11.0215
▁surrounding	-11.0228
▁merit	-11.0232
▁attempted	-11.0233
type	-11.0238
▁defeat	-11.0246
▁trade	-11.0247
▁Things	-11.0255
▁mild	-11.0255
▁bill	-11.0256
long	-11.0258
▁grows	-11.026
▁Los	-11.026
▁companion	-11.026
▁Church	-11.026
▁Astaire	-11.0261
▁Cagney	-11.0261
▁Laurel	-11.0261
▁believing	-11.0261
▁brilliance	-11.0261
▁generous	-11.0261
▁miserably	-11.0261
▁obscure	-11.0261
▁psychiatrist	-11.0261
▁resolution	-11.0261
▁restaurant	-11.0261
▁stood	-11.0261
▁website	-11.0261
▁liberal	-11.0261
▁menacing	-11.0261
▁Goldberg	-11.0261
▁Secret	-11.0269
▁Dorothy	-11.027
▁childish	-11.027
▁overdone	-11.0271
▁Personally	-11.0272
▁Carter	-11.0273
▁infamous	-11.0284
▁thoughts	-11.0287
▁tons	-11.0287
▁Whatever	-11.0291
▁hook	-11.0301
▁workers	-11.0306
▁logical	-11.0307
▁strike	-11.0308
paced	-11.0316
▁failing	-11.0316
▁spare	-11.0319
▁stated	-11.0324
▁closely	-11.0324
lf	-11.0327
▁dancer	-11.0332
ition	-11.0341
tain	-11.0341
acting	-11.0344
▁easier	-11.035
▁investigation	-11.035
▁thirty	-11.035
▁dentist	-11.035
▁Child	-11.035
▁2006	-11.035
▁Uncle	-11.035
▁Morris	-11.0351
▁resist	-11.0352
▁Brosnan	-11.0354
▁Roberts	-11.0355
▁duo	-11.0355
▁cabin	-11.0358
▁blast	-11.0358
acted	-11.0359
▁Comedy	-11.0359
▁Monster	-11.036
▁reactions	-11.036
ray	-11.0362
▁struck	-11.0364
▁spa	-11.0365
▁lake	-11.0367
▁Hope	-11.0369
▁Wal	-11.0371
▁lab	-11.0371
▁Poor	-11.0375
▁millions	-11.0379
▁achieved	-11.0385
▁riding	-11.0389
▁creators	-11.0397
▁dollar	-11.0406
▁ba	-11.0407
sky	-11.0409
▁faced	-11.0415
▁lacked	-11.0416
▁card	-11.0416
▁intentions	-11.0416
▁facts	-11.0425
OM	-11.0426
ib	-11.0431
berg	-11.0431
▁inspiring	-11.0438
▁captivating	-11.044
▁unpleasant	-11.044
▁buried	-11.044
▁nine	-11.044
▁cried	-11.044
▁spots	-11.0441
▁uninspired	-11.0441
ik	-11.0443
▁overwhelming	-11.0446
▁selfish	-11.0449
▁league	-11.0453
▁fourth	-11.0456
▁outcome	-11.0459
minded	-11.0461
▁talked	-11.0462
Director	-11.0471
▁appearing	-11.0475
drama	-11.0478
▁harm	-11.0485
▁uniform	-11.0491
▁argument	-11.0491
▁Picture	-11.0491
▁motivation	-11.0492
love	-11.0498
▁represents	-11.0498
▁kiss	-11.0501
▁Andrew	-11.0506
▁letter	-11.0508
ku	-11.0511
▁pal	-11.0511
▁cringe	-11.0515
▁pot	-11.0524
▁AT	-11.0524
▁Australia	-11.0526
▁gentle	-11.0528
▁eccentric	-11.0531
▁nonetheless	-11.0531
▁CIA	-11.0531
▁documentaries	-11.0531
▁sink	-11.0531
▁Navy	-11.0531
▁estate	-11.0531
▁Lucas	-11.0532
▁Bobby	-11.0533
▁Korean	-11.0533
▁Video	-11.0536
Watch	-11.0537
▁Almost	-11.0539
▁stinker	-11.0543
▁accomplished	-11.0545
▁Kane	-11.0547
▁Right	-11.0548
▁bang	-11.0548
▁BE	-11.0552
▁occurs	-11.056
▁tit	-11.0563
school	-11.0563
▁walls	-11.0573
ified	-11.0581
▁Kid	-11.0593
ook	-11.0596
▁crush	-11.0605
▁evident	-11.0607
Here	-11.0608
▁appearances	-11.0612
▁suggests	-11.0614
?).	-11.0615
cat	-11.0623
▁fifteen	-11.0623
▁Ruth	-11.0623
▁devil	-11.0623
▁planning	-11.0624
▁torn	-11.0625
▁sophisticated	-11.0626
▁breasts	-11.0627
▁beaten	-11.0628
▁cowboy	-11.063
▁Lane	-11.0632
hop	-11.0634
▁1/2	-11.0636
▁Murder	-11.0638
hal	-11.0654
▁spoiled	-11.0661
AT	-11.0663
Still	-11.067
▁21	-11.0676
▁Neil	-11.068
▁subplot	-11.0681
▁transfer	-11.0684
▁worthless	-11.0705
20	-11.0709
▁bare	-11.0713
▁virgin	-11.0714
▁health	-11.0715
▁Modesty	-11.0715
▁crisis	-11.0715
▁chasing	-11.0715
▁smash	-11.0716
▁burst	-11.0717
▁secretary	-11.0718
▁elsewhere	-11.0719
▁Legend	-11.0721
was	-11.0727
▁lifestyle	-11.0728
▁overlooked	-11.0728
ban	-11.0729
▁carefully	-11.0729
▁Excellent	-11.073
▁mistaken	-11.0731
▁ON	-11.0732
▁Next	-11.0734
did	-11.0734
▁dire	-11.0735
▁icon	-11.074
▁boxing	-11.0755
▁continued	-11.0757
▁Lily	-11.0771
▁landscape	-11.0775
▁string	-11.0775
nes	-11.0777
eta	-11.0779
fa	-11.0779
▁fi	-11.0779
▁climb	-11.0783
▁impress	-11.0784
▁suspects	-11.0791
▁pi	-11.0792
▁definite	-11.0794
▁farm	-11.0794
▁covers	-11.0801
▁Verhoeven	-11.0809
▁artificial	-11.0809
▁clown	-11.0809
▁exaggerated	-11.0809
▁competition	-11.0809
▁fox	-11.081
▁2001	-11.081
▁resemblance	-11.081
▁transformation	-11.0811
▁glass	-11.0812
▁Kirk	-11.0812
▁endure	-11.0818
▁reasonably	-11.0818
pper	-11.0823
▁Barry	-11.0825
▁notorious	-11.0826
▁importantly	-11.0828
ari	-11.0832
▁conclude	-11.0834
▁sp	-11.0836
▁titles	-11.084
▁kicks	-11.084
Where	-11.0844
▁2)	-11.0854
▁discuss	-11.0854
▁killings	-11.0857
also	-11.0865
▁Living	-11.0869
▁ta	-11.087
▁myth	-11.087
ore	-11.0873
▁freak	-11.0876
view	-11.0877
ability	-11.0879
▁hysterical	-11.0888
▁vague	-11.0888
▁Line	-11.0889
▁productions	-11.089
▁Tri	-11.0901
▁Miike	-11.0903
▁album	-11.0903
▁ambitious	-11.0903
▁choreography	-11.0903
▁Altman	-11.0903
▁digital	-11.0903
▁internet	-11.0903
▁pit	-11.0903
Me	-11.0904
▁cant	-11.0904
▁psychotic	-11.0904
▁frustrated	-11.0905
▁Perry	-11.0905
▁rebel	-11.0906
▁accused	-11.0908
bel	-11.0908
▁Margaret	-11.0909
▁invisible	-11.0909
▁pl	-11.0909
▁elderly	-11.0909
▁coach	-11.0909
▁destruction	-11.0912
▁photographed	-11.0913
▁lift	-11.0917
▁intrigued	-11.0922
▁pushed	-11.0929
▁cared	-11.0934
▁Sally	-11.0935
thriller	-11.0938
▁thrillers	-11.0941
ked	-11.0942
▁noble	-11.0943
▁watches	-11.0943
▁III	-11.0946
▁Sal	-11.0946
▁encounters	-11.0956
hot	-11.096
▁Highly	-11.0963
▁notion	-11.0966
▁occur	-11.0967
▁enters	-11.0973
▁spark	-11.0981
▁consequences	-11.0984
roll	-11.0989
▁lend	-11.099
▁superhero	-11.0997
▁detract	-11.0998
▁frustration	-11.0998
▁nuclear	-11.0998
▁Farrell	-11.0998
▁importance	-11.0998
▁cardboard	-11.0999
▁grandmother	-11.0999
▁precious	-11.0999
▁involvement	-11.0999
▁slightest	-11.1
▁bride	-11.1
▁typically	-11.1
▁spooky	-11.1001
▁gr	-11.1004
▁Indeed	-11.1005
▁drunken	-11.1008
▁instantly	-11.1011
▁ought	-11.1012
uite	-11.1013
▁Spirit	-11.1014
its	-11.1025
Da	-11.1032
▁maker	-11.1036
Jack	-11.1036
Most	-11.1036
ani	-11.1036
▁technically	-11.1039
▁wa	-11.104
▁50'	-11.1043
rit	-11.1047
▁existed	-11.1049
IR	-11.1054
zer	-11.1055
▁Ice	-11.1061
▁projects	-11.1062
▁Ten	-11.1064
▁timeless	-11.1068
▁stronger	-11.1068
ara	-11.1069
makers	-11.1071
▁saves	-11.1076
ush	-11.1076
▁screw	-11.1077
self	-11.1083
▁Bur	-11.1088
▁trap	-11.1089
bar	-11.1093
▁narrator	-11.1095
▁poverty	-11.1095
▁repetitive	-11.1095
▁warrior	-11.1095
▁Fonda	-11.1095
▁slick	-11.1095
▁grasp	-11.1095
▁assault	-11.1095
▁unbearable	-11.1096
▁Blake	-11.1097
▁bold	-11.1099
▁CO	-11.1101
▁Fay	-11.1101
▁concentrate	-11.1103
▁Jeremy	-11.1104
▁picking	-11.1105
▁45	-11.1106
▁Planet	-11.1113
▁Bush	-11.1119
30	-11.1127
Despite	-11.1132
Robert	-11.1132
because	-11.1132
Like	-11.1133
▁awe	-11.1137
▁shoots	-11.1137
book	-11.1139
▁Lion	-11.1142
▁ear	-11.1152
▁fighter	-11.1159
▁Thanks	-11.1164
▁buff	-11.1167
posed	-11.1167
▁darker	-11.1171
▁encourage	-11.1175
▁curse	-11.1175
▁smooth	-11.1176
▁angel	-11.1179
▁candy	-11.1179
▁wrap	-11.1191
▁pseudo	-11.1192
▁Gothic	-11.1192
▁inevitable	-11.1192
▁distance	-11.1192
▁bleak	-11.1192
▁popcorn	-11.1192
▁inventive	-11.1192
▁9/10	-11.1192
▁Romero	-11.1192
▁4/10	-11.1193
▁increasingly	-11.1196
▁Turner	-11.1198
▁Denzel	-11.1202
▁stops	-11.1205
▁unintentionally	-11.1205
▁Pretty	-11.1208
▁attracted	-11.1208
▁sadness	-11.1212
▁misses	-11.1213
▁reel	-11.122
▁Dad	-11.1227
such	-11.123
other	-11.1257
ien	-11.1266
▁Han	-11.1272
ura	-11.1273
tta	-11.1281
▁blank	-11.1289
▁steps	-11.129
▁Lemmon	-11.129
▁Spike	-11.129
▁bottle	-11.129
▁sloppy	-11.129
▁Cameron	-11.129
▁redemption	-11.129
▁Beatty	-11.129
▁daring	-11.129
▁gap	-11.1292
▁rocket	-11.1294
▁Gi	-11.1295
Tom	-11.1297
cent	-11.1302
▁dragon	-11.1303
▁aimed	-11.1305
▁engaged	-11.1306
▁Brit	-11.1308
▁riot	-11.1312
▁hunting	-11.1319
▁gotta	-11.132
▁tender	-11.1321
▁Col	-11.1322
▁ridiculously	-11.1323
▁lifetime	-11.1336
lam	-11.1345
▁Carr	-11.1345
▁fears	-11.1357
▁lit	-11.1364
series	-11.1366
Con	-11.1367
hour	-11.1371
▁idiots	-11.1372
▁subsequent	-11.1373
nar	-11.1374
▁superbly	-11.1382
▁Pie	-11.1385
▁absence	-11.1389
▁abysmal	-11.1389
▁boast	-11.1389
▁convoluted	-11.1389
▁unwatchable	-11.1389
▁vicious	-11.1389
▁jazz	-11.1389
▁conspiracy	-11.1389
▁Glenn	-11.1389
▁suspicious	-11.1389
▁excessive	-11.1389
▁occurred	-11.1389
▁dropped	-11.1389
▁antics	-11.1391
▁1950'	-11.1393
▁population	-11.1396
▁noise	-11.1399
▁Father	-11.14
▁Edie	-11.14
▁Set	-11.1407
▁Down	-11.1411
▁hitting	-11.1412
▁whoever	-11.1412
▁Sound	-11.1412
▁conventional	-11.1412
▁shirt	-11.1413
▁ST	-11.1415
▁Alien	-11.1419
dis	-11.142
▁FOR	-11.1422
motion	-11.143
▁ranks	-11.1435
Finally	-11.1437
new	-11.1437
▁briefly	-11.1441
▁sport	-11.1445
▁owe	-11.1447
▁web	-11.1456
▁habit	-11.1463
▁slave	-11.1466
▁shorts	-11.1468
▁finger	-11.1468
LL	-11.1471
▁shine	-11.1472
▁raped	-11.1473
▁Years	-11.1473
▁Cole	-11.1483
yer	-11.1485
▁loyal	-11.1488
▁Dawson	-11.1489
▁helicopter	-11.1489
▁horrid	-11.1489
▁rural	-11.1489
▁captain	-11.1489
▁Hartley	-11.1489
▁Price	-11.1489
▁reduced	-11.1493
▁peak	-11.1496
▁Kenneth	-11.1497
▁Season	-11.1499
▁scripted	-11.1508
▁Mystery	-11.1509
▁overrated	-11.1509
ese	-11.1515
▁thrill	-11.1517
▁provid	-11.1523
▁receive	-11.1523
▁scientists	-11.1526
▁Ram	-11.1527
▁Hank	-11.1535
▁tortured	-11.1537
▁Leon	-11.1539
▁stealing	-11.1546
▁redeem	-11.1546
▁Heart	-11.1551
▁rocks	-11.1556
pet	-11.1561
▁button	-11.1561
Gr	-11.1564
under	-11.1564
▁leg	-11.157
▁engage	-11.1571
▁dump	-11.1573
▁nut	-11.1585
▁gal	-11.1588
▁bargain	-11.159
▁Timothy	-11.159
▁aforementioned	-11.159
▁dignity	-11.159
▁Greek	-11.159
▁NEVER	-11.159
▁foul	-11.1591
▁comfortable	-11.1591
▁Fool	-11.1591
▁ANY	-11.1593
▁sadistic	-11.1593
▁glorious	-11.1594
▁Grey	-11.1594
▁fancy	-11.1596
itz	-11.1601
80	-11.1606
▁distracting	-11.1608
▁Hamlet	-11.161
ened	-11.161
▁meaningless	-11.1614
▁thoughtful	-11.1616
▁burned	-11.1617
▁Films	-11.1617
Richard	-11.1632
maybe	-11.1632
▁dose	-11.1633
SPOILERS	-11.1635
▁remaining	-11.1637
▁ingredients	-11.1646
any	-11.1646
than	-11.165
▁blows	-11.1659
▁progress	-11.1659
▁def	-11.1663
▁draws	-11.1667
sses	-11.1669
▁dimension	-11.1672
▁pa	-11.1674
uc	-11.168
▁nerd	-11.1682
err	-11.1685
▁senseless	-11.1686
▁distinct	-11.1688
▁innovative	-11.1692
▁producing	-11.1692
▁silence	-11.1692
▁Soviet	-11.1692
▁unbelievably	-11.1692
▁combat	-11.1692
▁Rather	-11.1692
▁Francisco	-11.1693
une	-11.1693
▁respond	-11.1694
▁marks	-11.1695
▁hunter	-11.1696
▁Lawrence	-11.1696
▁Polanski	-11.1696
▁milk	-11.1697
▁Davies	-11.1698
▁Mitchell	-11.1698
Car	-11.17
▁Ginger	-11.17
▁Craig	-11.1702
▁Beautiful	-11.1704
▁messages	-11.1705
▁Camp	-11.1705
▁battles	-11.1707
▁improved	-11.1708
▁Tr	-11.171
▁classes	-11.1719
▁fo	-11.1723
▁Stiller	-11.1725
▁arrested	-11.1728
▁ignored	-11.173
stars	-11.173
teen	-11.1731
▁revealing	-11.1733
▁commercials	-11.1735
▁strikes	-11.174
▁metaphor	-11.1741
▁performing	-11.1746
▁je	-11.1747
▁justify	-11.1747
▁bust	-11.1749
▁studios	-11.1753
▁reflect	-11.1755
▁Jan	-11.1766
▁ya	-11.1768
▁Danes	-11.177
▁pulling	-11.177
▁states	-11.178
▁sentiment	-11.1785
▁Kapoor	-11.1795
▁2005	-11.1795
▁liking	-11.1795
▁passionate	-11.1796
▁devoted	-11.1797
▁Fisher	-11.1797
▁futuristic	-11.1801
▁explaining	-11.1801
▁roommate	-11.1804
▁Bell	-11.1806
▁j	-11.1807
▁Nevertheless	-11.1808
▁Mother	-11.1809
▁exposed	-11.1809
▁Worst	-11.1809
▁punk	-11.1821
▁factory	-11.1823
ibly	-11.1823
▁repeatedly	-11.1823
▁individuals	-11.1825
▁Mat	-11.1826
▁reached	-11.1834
▁demands	-11.1836
▁Mer	-11.184
del	-11.1841
Ho	-11.1846
▁jumping	-11.1868
going	-11.1869
eb	-11.1872
ium	-11.1875
▁attract	-11.1877
OO	-11.1882
▁guarantee	-11.1882
nu	-11.1885
▁resembles	-11.1885
▁guest	-11.1887
stop	-11.189
▁aid	-11.1895
▁comfort	-11.1897
▁Mildred	-11.1899
▁NOTHING	-11.1899
▁clumsy	-11.1899
▁disjointed	-11.1899
▁exotic	-11.1899
▁juvenile	-11.1899
▁worried	-11.1899
▁audio	-11.1899
▁Claus	-11.1899
▁slice	-11.1899
▁proceedings	-11.1899
▁HBO	-11.19
▁tank	-11.19
▁afterwards	-11.19
▁pressure	-11.1903
▁morality	-11.1904
▁Wallace	-11.1904
▁extended	-11.1907
▁BUT	-11.1908
▁Akshay	-11.1909
▁racial	-11.1909
▁tall	-11.191
friend	-11.1912
eth	-11.1913
▁offended	-11.192
▁Ring	-11.1926
pon	-11.1926
▁ease	-11.1927
▁inform	-11.1928
▁prop	-11.1934
▁Ross	-11.1934
▁titled	-11.1936
ET	-11.1939
awful	-11.194
funny	-11.1942
great	-11.1944
▁loosely	-11.1946
cket	-11.1951
▁awake	-11.1957
▁compar	-11.1965
mu	-11.1966
▁Indians	-11.1967
▁Gen	-11.1971
lia	-11.1974
▁returned	-11.1974
▁displays	-11.1976
▁advise	-11.1976
▁escaped	-11.1978
▁bump	-11.1979
cle	-11.1979
▁legal	-11.1983
▁Ke	-11.1984
▁purchase	-11.1987
▁westerns	-11.1988
▁improve	-11.1989
take	-11.1991
▁preview	-11.1995
▁thumbs	-11.1995
▁quit	-11.1996
▁heroic	-11.2001
▁demons	-11.2002
▁interact	-11.2002
▁imagined	-11.2004
▁gimmick	-11.2004
▁staff	-11.2004
▁Alexander	-11.2004
▁kidding	-11.2005
▁spring	-11.2005
▁chest	-11.2006
▁Todd	-11.2006
▁countryside	-11.2008
▁Olivier	-11.2008
▁splatter	-11.2009
SS	-11.2015
▁Ku	-11.2017
▁Force	-11.2021
▁shelf	-11.2022
now	-11.2022
▁rave	-11.2027
born	-11.2032
▁jaw	-11.2034
▁threatening	-11.2036
▁bra	-11.2037
▁reasonable	-11.2038
▁recognized	-11.2042
▁Nor	-11.2046
▁Yu	-11.2046
▁rely	-11.2048
ged	-11.2049
vision	-11.2051
Sha	-11.2051
worthy	-11.2056
about	-11.2057
▁dancers	-11.2058
▁Miles	-11.206
▁code	-11.2063
▁attend	-11.2066
▁grab	-11.2068
▁staying	-11.2073
using	-11.2078
win	-11.208
▁arrive	-11.2086
▁offend	-11.2091
▁pursue	-11.2094
▁highlights	-11.2097
▁fade	-11.2099
▁Rochester	-11.2111
▁territory	-11.2111
▁explosions	-11.2111
▁funeral	-11.2111
▁Wolf	-11.2111
▁bathroom	-11.2111
▁thread	-11.2111
▁symbolism	-11.2111
▁Robinson	-11.2113
▁Face	-11.2113
▁nearby	-11.2117
▁disturbed	-11.2119
▁Soldier	-11.2119
uinn	-11.2119
▁Dracula	-11.2121
▁Jamie	-11.2121
▁Nu	-11.2122
▁consistently	-11.2124
▁notably	-11.2126
▁Iraq	-11.2128
▁National	-11.2128
▁alcoholic	-11.213
ubb	-11.2139
▁succeeded	-11.214
▁Cold	-11.2143
▁CD	-11.2151
▁Dis	-11.2152
▁rob	-11.2152
▁Ash	-11.2152
▁Eye	-11.2155
ying	-11.2158
Great	-11.2158
▁affect	-11.2161
▁span	-11.2167
▁tap	-11.217
▁closet	-11.2171
tes	-11.2172
▁user	-11.2193
▁wealth	-11.2212
▁Rick	-11.2213
pol	-11.2214
▁thru	-11.2217
▁nervous	-11.2218
▁illegal	-11.2218
▁illogical	-11.2218
▁sweat	-11.2218
▁returning	-11.2218
▁exchange	-11.2218
▁Wind	-11.2219
▁Karen	-11.222
▁philosophy	-11.222
▁Maggie	-11.2222
▁fanatic	-11.2222
▁translation	-11.2222
▁Human	-11.2225
▁Winters	-11.2226
come	-11.2227
▁commented	-11.2229
▁Emily	-11.2235
▁affected	-11.2236
▁r	-11.2237
▁Classic	-11.2238
▁highest	-11.2238
"...	-11.2239
▁WAS	-11.224
▁Code	-11.2244
▁lord	-11.2245
?),	-11.2247
▁differences	-11.2249
▁beer	-11.2253
most	-11.2257
rg	-11.2257
▁west	-11.226
▁alas	-11.2264
Dr	-11.2264
▁Tu	-11.2266
power	-11.2279
▁disappear	-11.2279
▁earn	-11.2299
ppy	-11.2301
▁selling	-11.2303
▁bone	-11.2307
eck	-11.2309
cur	-11.231
▁har	-11.2311
▁adequate	-11.2311
▁vivid	-11.2311
▁blatant	-11.2311
ration	-11.2322
▁bullets	-11.2324
▁photo	-11.2327
cra	-11.2327
▁Field	-11.2327
▁Swedish	-11.2327
▁abilities	-11.2327
▁implausible	-11.2327
▁nephew	-11.2327
▁tribe	-11.2327
▁Ollie	-11.2327
▁mixture	-11.2327
▁trademark	-11.2327
▁causing	-11.2327
▁piano	-11.2327
▁flee	-11.2327
hole	-11.2327
▁birthday	-11.2328
▁gear	-11.2328
▁dynamic	-11.2328
▁gradually	-11.2329
▁Tommy	-11.2331
▁Walker	-11.2331
▁Leonard	-11.2332
▁Madonna	-11.2333
▁formulaic	-11.2333
▁comics	-11.2335
▁babe	-11.2336
▁reaches	-11.2336
▁option	-11.2336
▁Vampire	-11.2337
▁tie	-11.2337
▁Except	-11.2338
▁Donna	-11.2339
▁removed	-11.2339
▁props	-11.234
▁clothing	-11.234
▁performer	-11.2342
comprehensible	-11.2344
▁Meg	-11.2349
ograph	-11.2351
▁alike	-11.2361
▁ver	-11.2362
eyed	-11.2362
▁clues	-11.2368
Movie	-11.2377
try	-11.2377
Look	-11.2378
woman	-11.2382
esque	-11.2383
▁Bud	-11.2394
think	-11.2405
▁report	-11.2407
bie	-11.2408
▁slip	-11.2411
▁transform	-11.2416
▁feed	-11.2419
▁suits	-11.2421
▁avoided	-11.2422
▁stereotype	-11.2426
▁occasion	-11.2432
▁homosexual	-11.2435
▁monkey	-11.2436
▁explosion	-11.2437
▁horrifying	-11.2437
▁silver	-11.2437
▁Sellers	-11.2437
▁April	-11.2437
▁distant	-11.2437
▁ignorant	-11.2437
▁embarrassment	-11.2437
▁mouse	-11.2437
▁Warren	-11.2439
▁Harvey	-11.2441
▁reflection	-11.2443
▁Cut	-11.2447
▁folk	-11.2449
wan	-11.245
▁cheating	-11.2452
▁errors	-11.2452
▁passes	-11.2454
▁crimes	-11.2458
▁Roman	-11.2459
▁Nice	-11.2459
▁albeit	-11.246
▁Hero	-11.2465
▁staged	-11.2465
ire	-11.247
▁hu	-11.2473
▁influenced	-11.2477
show	-11.2478
hum	-11.2482
ev	-11.2484
▁lasted	-11.2484
▁videos	-11.2484
▁sons	-11.2489
nch	-11.2493
▁Got	-11.2502
elli	-11.2505
▁Har	-11.2513
script	-11.2521
cher	-11.2524
Lo	-11.2527
lee	-11.2529
▁damage	-11.2531
▁financial	-11.2532
▁enormous	-11.2532
▁unintentional	-11.2532
▁TH	-11.254
▁Adams	-11.2543
19	-11.2543
▁Shaw	-11.2547
▁delicious	-11.2548
▁Craven	-11.2548
▁adorable	-11.2548
▁dedicated	-11.2548
▁desperation	-11.2548
▁french	-11.2548
▁glory	-11.2548
▁miserable	-11.2548
▁nostalgic	-11.2548
▁scientific	-11.2548
▁simplistic	-11.2548
▁stellar	-11.2548
▁inferior	-11.2548
▁kitchen	-11.2548
▁celluloid	-11.2548
▁coincidence	-11.2548
▁Nicholson	-11.2548
▁blew	-11.2548
▁prequel	-11.2548
▁bullet	-11.2551
▁affection	-11.2554
▁twin	-11.2556
▁tip	-11.2558
▁uneven	-11.2558
ale	-11.2561
▁Run	-11.2562
▁outfit	-11.2566
▁Dance	-11.2567
▁topless	-11.2567
▁Wonderful	-11.2569
▁Chase	-11.2578
▁Luci	-11.258
▁wood	-11.2581
▁Granted	-11.2583
ify	-11.2584
▁wonders	-11.2585
▁winds	-11.2589
▁Made	-11.2591
ute	-11.2597
ister	-11.2599
▁fa	-11.2607
IVE	-11.2607
▁suited	-11.2611
▁detailed	-11.2613
▁dozens	-11.2615
then	-11.2615
▁ears	-11.2632
▁harder	-11.2638
▁unfolds	-11.2643
▁enhance	-11.2643
▁aging	-11.2643
▁sentence	-11.2648
▁cure	-11.2655
▁Eli	-11.2657
▁Clint	-11.2657
▁Mario	-11.2657
▁rush	-11.2659
▁Nazis	-11.266
▁Francis	-11.266
▁elegant	-11.266
climactic	-11.266
▁Florida	-11.266
▁Paltrow	-11.266
▁SNL	-11.266
▁buddies	-11.266
▁miracle	-11.266
▁prejudice	-11.266
▁satisfied	-11.266
▁Jeffrey	-11.266
▁south	-11.266
▁Knight	-11.2661
▁chapter	-11.2661
▁hatred	-11.2661
▁calm	-11.2662
▁Simpson	-11.2664
▁Angeles	-11.2666
▁Strange	-11.2667
▁interaction	-11.2667
udi	-11.2668
ction	-11.2669
▁composed	-11.2669
▁coherent	-11.267
▁terrorist	-11.2673
▁Rings	-11.2676
▁Cl	-11.2677
▁Remember	-11.2678
▁Castle	-11.2682
▁wow	-11.2684
▁bears	-11.2684
▁ne	-11.2685
▁Princess	-11.2689
▁Unless	-11.2692
▁Ki	-11.2701
maker	-11.2703
▁displayed	-11.2706
bert	-11.2716
illa	-11.2718
ching	-11.2725
vy	-11.2727
guy	-11.2743
▁confess	-11.2745
▁oddly	-11.2746
OW	-11.2746
ACT	-11.2747
▁dinosaurs	-11.2748
▁areas	-11.2748
▁5.	-11.2751
▁describes	-11.2752
......	-11.2753
▁robots	-11.2754
rely	-11.2762
▁Pu	-11.2762
▁involve	-11.2764
▁hi	-11.2766
zing	-11.2772
▁Fi	-11.2773
▁Grinch	-11.2774
▁Gundam	-11.2774
▁arrogant	-11.2774
▁ninja	-11.2774
▁recruit	-11.2774
▁rifle	-11.2774
▁synopsis	-11.2774
▁Brooklyn	-11.2774
▁International	-11.2774
▁GREAT	-11.2774
▁nevertheless	-11.2774
▁Eyre	-11.2774
▁banned	-11.2774
▁Godfather	-11.2774
▁trio	-11.2775
▁wire	-11.2775
▁depressed	-11.2777
▁authority	-11.2778
▁Palma	-11.2779
www	-11.2781
▁illness	-11.2781
▁Jet	-11.2781
▁relation	-11.2781
▁screams	-11.2785
▁Would	-11.2786
▁smoking	-11.2787
▁Enjoy	-11.2789
▁smaller	-11.279
▁mar	-11.279
▁dimensional	-11.2791
▁Worth	-11.2792
▁Lots	-11.2793
▁define	-11.2794
▁prize	-11.2796
▁Macy	-11.2798
▁motives	-11.2798
▁Phil	-11.2802
▁Sin	-11.2804
▁Band	-11.2806
▁dud	-11.2808
▁fooled	-11.281
▁Julian	-11.2814
▁partly	-11.2815
acy	-11.2816
▁souls	-11.2822
shot	-11.2823
IS	-11.2826
white	-11.2829
dead	-11.2832
▁Top	-11.2834
▁ONE	-11.2838
▁recorded	-11.2839
▁edit	-11.2841
THE	-11.2842
▁gather	-11.2845
▁yell	-11.2863
▁assassin	-11.2868
▁porno	-11.2879
▁sketch	-11.2885
▁goodness	-11.2887
▁poison	-11.2888
▁compliment	-11.2889
▁Bakshi	-11.2889
▁Kennedy	-11.2889
▁rendition	-11.2889
▁chess	-11.2889
▁tiresome	-11.2889
▁Bergman	-11.289
▁poem	-11.289
▁philosophical	-11.2891
cca	-11.2892
▁golden	-11.2893
▁Bat	-11.2895
▁murderous	-11.2896
▁switch	-11.2898
▁Under	-11.2898
▁RE	-11.2902
▁Matthew	-11.2902
▁Kris	-11.2905
▁purchased	-11.2907
▁tad	-11.2911
▁represented	-11.2914
▁Fer	-11.2915
▁Je	-11.2918
▁Ph	-11.2919
▁teaching	-11.2924
▁counter	-11.2928
▁Song	-11.2929
▁acid	-11.2932
▁Tale	-11.2939
Please	-11.2945
James	-11.2945
▁Ward	-11.2947
rent	-11.2951
▁Leo	-11.2953
ttle	-11.2954
based	-11.2955
▁lyrics	-11.2956
urg	-11.2957
▁poetic	-11.2958
gging	-11.296
mother	-11.2962
▁alter	-11.2965
▁wished	-11.2966
▁introduces	-11.2966
▁Ber	-11.2976
▁scratch	-11.2979
▁SH	-11.2989
▁vast	-11.299
▁headed	-11.2996
fan	-11.2997
spiring	-11.3
▁education	-11.3002
worker	-11.3003
▁electric	-11.3004
▁Fulci	-11.3005
▁Voight	-11.3005
▁yesterday	-11.3005
▁Belushi	-11.3005
▁coffee	-11.3005
▁diamond	-11.3005
▁emphasis	-11.3005
▁savage	-11.3005
▁sympathize	-11.3005
▁generic	-11.3005
▁Certainly	-11.3005
▁Graham	-11.3005
▁2004	-11.3005
▁primary	-11.3005
▁politician	-11.3005
▁unsettling	-11.3006
▁Ireland	-11.3006
▁Kumar	-11.3006
▁shoes	-11.3006
▁wont	-11.3006
▁retain	-11.3009
▁Linda	-11.3009
pri	-11.3011
▁Close	-11.3011
▁pause	-11.3012
▁Mickey	-11.3013
▁Amazing	-11.3015
▁suitable	-11.3016
▁chuckle	-11.3017
▁corpse	-11.3017
▁nomination	-11.3018
▁Norman	-11.3021
▁catches	-11.3024
▁Pr	-11.3026
aid	-11.3026
▁possessed	-11.3028
▁arc	-11.3029
▁explored	-11.3029
▁mile	-11.3033
stone	-11.3037
▁Apart	-11.3042
kar	-11.3044
▁Save	-11.3052
▁provoking	-11.3053
▁catchy	-11.3054
name	-11.3055
▁trashy	-11.3064
▁conversations	-11.3068
▁chased	-11.3068
hoo	-11.3071
▁Call	-11.3073
▁traveling	-11.3079
▁shadows	-11.3085
ius	-11.3088
▁comm	-11.3089
ski	-11.3096
▁widow	-11.3097
gged	-11.3101
▁accomplish	-11.3103
▁suspend	-11.3104
▁abandon	-11.3105
▁movements	-11.3105
atic	-11.3106
▁del	-11.311
▁unfold	-11.3116
▁stole	-11.3119
nor	-11.3122
▁access	-11.3122
▁Gadget	-11.3123
▁Streep	-11.3123
▁immigrant	-11.3123
▁possibilities	-11.3123
▁principle	-11.3123
▁stilted	-11.3123
▁valuable	-11.3123
▁intimate	-11.3123
▁altogether	-11.3123
▁schlock	-11.3123
▁pride	-11.3123
▁Series	-11.3123
▁Dixon	-11.3123
▁Garbo	-11.3124
▁inject	-11.3124
▁plight	-11.3125
▁downhill	-11.3125
▁Niro	-11.3125
▁Cuba	-11.3126
▁Terry	-11.3126
▁2/10	-11.3126
▁trees	-11.3127
▁dramas	-11.3129
▁immensely	-11.313
▁Inspector	-11.313
ular	-11.3131
▁pig	-11.3131
▁Whoopi	-11.3132
▁phrase	-11.3132
▁heat	-11.3133
▁guessed	-11.3133
▁Annie	-11.3134
▁waited	-11.3136
▁principal	-11.3138
▁inappropriate	-11.3139
zi	-11.314
▁Actor	-11.3141
sci	-11.3145
▁Hurt	-11.3147
▁fist	-11.3148
▁alternate	-11.3149
▁Plot	-11.315
llowing	-11.3153
▁Brother	-11.3153
▁decisions	-11.3156
▁Seven	-11.3159
▁cow	-11.3162
ria	-11.3163
world	-11.3166
▁desired	-11.317
▁Bela	-11.3171
▁inane	-11.3172
▁Read	-11.3172
▁contained	-11.3174
▁motivations	-11.3174
▁mountains	-11.3177
ENT	-11.3183
Can	-11.3184
▁Em	-11.3185
▁Char	-11.3197
▁cliche	-11.3197
▁developing	-11.3197
iz	-11.3206
▁labor	-11.3207
▁Cal	-11.3211
▁jo	-11.3211
nda	-11.3212
▁politically	-11.3212
▁mock	-11.3217
▁borrow	-11.3224
▁divorce	-11.3228
▁consistent	-11.3229
▁Hills	-11.3229
▁SEE	-11.323
▁trail	-11.3232
▁relations	-11.3234
▁frequent	-11.3236
▁hints	-11.3237
▁kidnap	-11.3241
▁frustrating	-11.3242
▁Century	-11.3242
▁abusive	-11.3242
▁challenging	-11.3242
▁predecessor	-11.3242
▁riveting	-11.3242
▁obtain	-11.3242
▁sappy	-11.3242
▁exploit	-11.3242
▁humble	-11.3242
▁romp	-11.3242
▁Diana	-11.3242
▁Hopper	-11.3243
▁objective	-11.3243
▁fest	-11.3243
▁flies	-11.3243
▁roof	-11.3243
▁Griffith	-11.3245
▁unreal	-11.3246
▁Reg	-11.325
▁directs	-11.3252
SH	-11.3258
Hey	-11.326
▁Cher	-11.3263
▁Vegas	-11.3264
▁package	-11.3265
▁deny	-11.3269
▁Special	-11.327
▁Khan	-11.327
▁Bel	-11.3272
▁coup	-11.3273
▁lengthy	-11.3274
▁Year	-11.3275
▁resemble	-11.3276
uri	-11.3278
▁Myers	-11.3285
word	-11.3298
▁mall	-11.3302
▁Joey	-11.3306
TER	-11.3311
▁useful	-11.3316
ama	-11.3324
RY	-11.333
▁4.	-11.3331
▁Dee	-11.3333
▁recording	-11.3339
▁launch	-11.3344
q	-11.3345
▁instant	-11.3347
▁thugs	-11.3352
▁char	-11.3356
▁/>***	-11.3357
▁spoke	-11.3358
El	-11.3359
.......	-11.336
▁Ah	-11.3361
▁Bacall	-11.3362
▁Scrooge	-11.3362
▁imitation	-11.3362
▁nostalgia	-11.3362
▁possibility	-11.3362
▁simplicity	-11.3362
▁Kyle	-11.3362
▁Jenny	-11.3363
▁rubber	-11.3363
▁Dutch	-11.3363
▁ONLY	-11.3363
▁Owen	-11.3363
▁operation	-11.3364
▁sticks	-11.3364
▁shall	-11.3365
▁similarities	-11.3365
▁Shirley	-11.3369
▁Through	-11.337
▁surfing	-11.3374
▁Din	-11.3382
OT	-11.3389
▁Titanic	-11.3395
▁forty	-11.3402
▁Hey	-11.3405
pan	-11.3407
▁goof	-11.3408
▁burning	-11.3408
▁kicked	-11.3415
special	-11.3424
Black	-11.3425
ew	-11.3429
▁severe	-11.3452
ept	-11.3453
▁Eve	-11.3454
▁hearts	-11.3456
▁Berlin	-11.3457
▁grip	-11.3467
▁inspire	-11.3467
▁trend	-11.3478
movies	-11.3481
▁contest	-11.3483
▁GOOD	-11.3484
▁cinematographer	-11.3484
▁dreary	-11.3484
▁enemies	-11.3484
▁paranoia	-11.3484
▁quarter	-11.3484
▁solution	-11.3484
▁Gerard	-11.3484
▁Lumet	-11.3484
▁absent	-11.3484
▁soccer	-11.3484
▁appreciation	-11.3484
▁Neither	-11.3484
▁remarkably	-11.3484
▁Talk	-11.3485
▁Times	-11.3485
▁dismiss	-11.3485
▁wore	-11.3485
▁Theater	-11.3485
▁Grim	-11.3486
▁Thus	-11.3486
▁corruption	-11.3487
▁dating	-11.3488
▁Sister	-11.3489
▁progresses	-11.3489
▁subtlety	-11.3489
▁'70	-11.349
▁Manhattan	-11.349
▁thankfully	-11.349
▁Jonathan	-11.3491
▁Characters	-11.3493
▁bitch	-11.3494
▁Hugh	-11.3495
▁civil	-11.3495
▁Fortunately	-11.3498
tention	-11.3501
▁disappeared	-11.3504
12	-11.3511
fire	-11.3511
▁nu	-11.3513
▁executive	-11.3514
▁tracks	-11.3517
War	-11.3524
▁builds	-11.3525
▁Hart	-11.3529
cer	-11.3548
▁farmer	-11.3548
▁bla	-11.3555
kill	-11.3566
▁secretly	-11.3566
▁gut	-11.3567
▁collect	-11.3574
▁Woods	-11.3575
bur	-11.3578
▁tales	-11.358
▁wig	-11.3582
bling	-11.3583
▁Bro	-11.3583
▁odds	-11.3586
40	-11.3589
ifying	-11.3592
▁nightmares	-11.3593
▁criticize	-11.36
▁h	-11.3602
ati	-11.3603
▁organ	-11.3607
▁Cassidy	-11.3608
▁Connery	-11.3608
▁global	-11.3608
▁grotesque	-11.3608
▁pattern	-11.3608
▁square	-11.3608
▁mysteries	-11.3608
▁Southern	-11.3608
▁seventies	-11.3608
▁Edgar	-11.3608
▁trace	-11.3609
▁bedroom	-11.3609
▁unoriginal	-11.3609
▁bonus	-11.3609
▁tick	-11.361
▁cake	-11.3612
▁hardcore	-11.3612
▁complexity	-11.3613
▁deliberately	-11.3615
▁copies	-11.3616
▁rapist	-11.3617
▁Dawn	-11.3617
▁Fall	-11.3618
▁focusing	-11.3619
▁Anton	-11.3619
▁doomed	-11.3621
▁realizing	-11.3622
hol	-11.3623
▁backgrounds	-11.3625
▁centre	-11.3627
▁Va	-11.3628
▁Honestly	-11.3628
▁hurts	-11.3629
▁models	-11.3634
▁dinosaur	-11.3636
▁discovery	-11.3638
onic	-11.364
▁cheek	-11.3645
▁painted	-11.366
▁travels	-11.3665
▁jumped	-11.3669
▁handed	-11.367
▁35	-11.367
▁secrets	-11.3672
ombies	-11.3675
▁Thing	-11.3678
fall	-11.3682
▁hence	-11.3683
▁pour	-11.3686
ux	-11.369
▁beats	-11.3692
▁Pan	-11.3692
still	-11.3692
▁tooth	-11.3694
▁Justin	-11.3696
▁subjects	-11.37
▁predict	-11.3702
▁delivering	-11.3703
▁map	-11.3705
▁threaten	-11.3706
▁Kat	-11.3707
▁satisfy	-11.3707
▁Game	-11.3708
▁hood	-11.3712
▁cook	-11.3716
▁Mom	-11.3717
ology	-11.3717
▁brains	-11.3725
Her	-11.3729
▁Case	-11.373
▁promote	-11.3731
▁Rooney	-11.3733
▁Ustinov	-11.3733
▁exploration	-11.3733
▁guitar	-11.3733
▁mundane	-11.3733
▁undoubtedly	-11.3733
▁swimming	-11.3733
▁taught	-11.3733
▁leap	-11.3733
▁flip	-11.3734
▁rude	-11.3735
▁REAL	-11.3735
▁vein	-11.3735
▁eighties	-11.3735
▁safety	-11.3736
▁Uwe	-11.3737
▁tunes	-11.3738
▁Amanda	-11.374
era	-11.374
▁Damon	-11.3743
▁questionable	-11.3744
▁cheated	-11.3745
▁gangsters	-11.3747
▁vaguely	-11.3753
▁earned	-11.3754
▁symbol	-11.3754
▁Brady	-11.3756
▁remarks	-11.3762
▁Waters	-11.3763
▁clip	-11.3765
▁Doo	-11.3766
▁cats	-11.3766
▁Sex	-11.3767
▁witnessed	-11.3769
▁Cary	-11.3771
▁promised	-11.3774
▁claimed	-11.3776
▁SPOILER	-11.3785
▁brutally	-11.3786
▁honesty	-11.3787
His	-11.3795
▁Tur	-11.3795
▁Franco	-11.3795
▁bird	-11.3796
▁cards	-11.3796
again	-11.38
▁dr	-11.3824
▁intend	-11.383
▁swing	-11.3836
▁machines	-11.3836
▁bite	-11.3838
▁classical	-11.3843
▁casual	-11.3844
▁replace	-11.3845
▁mill	-11.3846
▁Air	-11.3847
▁Latin	-11.3854
▁terrorists	-11.3854
▁Carradine	-11.3859
▁McLaglen	-11.3859
▁capturing	-11.3859
▁elephant	-11.3859
▁pursuit	-11.3859
▁thief	-11.3859
▁wretched	-11.3859
▁Abraham	-11.3859
▁Dolph	-11.3859
▁volume	-11.3859
▁gender	-11.3859
▁photos	-11.3859
▁Damme	-11.386
▁Virginia	-11.386
▁Hyde	-11.386
Title	-11.3861
▁selection	-11.3862
▁confrontation	-11.3863
▁Kubrick	-11.3865
▁southern	-11.3866
▁quotes	-11.3866
rip	-11.3866
ians	-11.3867
▁polished	-11.3867
▁warmth	-11.3867
▁considerable	-11.3868
▁weakest	-11.3869
▁Diane	-11.3869
▁composer	-11.3873
▁clock	-11.3878
▁Lam	-11.3879
▁CG	-11.3879
▁messed	-11.3882
▁Fear	-11.3883
▁lion	-11.3889
▁Raj	-11.3891
▁parallel	-11.3893
▁stark	-11.3897
▁Dev	-11.3903
▁DON	-11.3903
uh	-11.3903
▁bully	-11.3903
▁Carrie	-11.3907
▁rage	-11.3911
wo	-11.3923
Perhaps	-11.3927
Thank	-11.3927
Though	-11.3928
ters	-11.3928
▁reaching	-11.3929
Once	-11.3933
▁pants	-11.3936
▁lately	-11.3937
IE	-11.3942
oid	-11.3945
▁Tor	-11.3947
▁toys	-11.3949
▁convincingly	-11.3952
▁Days	-11.3958
▁Fre	-11.396
▁forms	-11.3961
▁potentially	-11.3965
Ar	-11.3978
▁drops	-11.398
ole	-11.3981
▁ME	-11.3984
▁maid	-11.3985
▁pays	-11.3987
▁Campbell	-11.3987
▁celebrity	-11.3987
▁equipment	-11.3987
▁smiling	-11.3987
▁survival	-11.3987
▁understated	-11.3987
▁Drake	-11.3987
▁chaos	-11.3987
▁demented	-11.3987
▁isolated	-11.3987
▁debate	-11.3988
▁Spock	-11.3988
▁Barrymore	-11.3988
▁hammer	-11.3988
▁punishment	-11.3988
▁snap	-11.3988
▁wrapped	-11.3988
▁employee	-11.3988
▁Logan	-11.3988
▁household	-11.3989
▁communicate	-11.399
▁Gra	-11.3991
versus	-11.3993
▁9/11	-11.3993
▁Jesse	-11.3995
▁Skip	-11.3995
▁Oz	-11.3995
phe	-11.3997
▁tourist	-11.3997
▁Angela	-11.3999
▁Fra	-11.4
▁Usually	-11.4001
▁Paulie	-11.4001
cap	-11.4002
▁Writer	-11.4007
▁psychic	-11.4007
▁arrived	-11.4008
▁Dirty	-11.4008
actors	-11.401
▁lowest	-11.401
▁dust	-11.401
▁scope	-11.4014
▁Lang	-11.4018
▁notes	-11.4025
nia	-11.4025
▁3.	-11.4025
Or	-11.4025
▁staring	-11.4028
▁Muslim	-11.4029
▁doors	-11.4031
▁Bear	-11.4031
▁dish	-11.4034
cept	-11.4037
uel	-11.4038
▁moody	-11.4041
▁Stevens	-11.4041
▁Us	-11.4044
▁blond	-11.4047
▁survived	-11.4048
▁cla	-11.4056
nate	-11.4057
forward	-11.4059
ological	-11.4059
Two	-11.406
▁Amy	-11.406
George	-11.4063
rap	-11.4065
CE	-11.4068
▁Bon	-11.4068
▁3-	-11.407
▁compell	-11.407
▁Ste	-11.4071
cum	-11.4079
▁conflicts	-11.4082
▁beliefs	-11.4086
▁capital	-11.4089
▁Gore	-11.4089
▁officers	-11.4091
▁Wait	-11.4097
INE	-11.4097
▁adopt	-11.4099
nie	-11.4108
▁Rod	-11.4113
▁agents	-11.4113
▁vulgar	-11.4116
▁exquisite	-11.4117
▁swallow	-11.4117
▁Crawford	-11.4117
▁equivalent	-11.4117
▁unaware	-11.4117
▁Dalton	-11.4117
▁vocal	-11.4117
▁advertising	-11.4117
▁conservative	-11.4117
▁construction	-11.4118
▁Holly	-11.4118
▁Malone	-11.4118
▁venture	-11.4119
▁planned	-11.4119
▁improvement	-11.4119
▁waitress	-11.4119
▁duty	-11.4119
▁fascinated	-11.412
▁Somehow	-11.4121
▁conviction	-11.4121
▁vulnerable	-11.4123
▁indicate	-11.4123
▁sincere	-11.4124
▁WHY	-11.4125
▁Women	-11.4126
igh	-11.4126
▁winter	-11.4126
▁Rambo	-11.4126
▁Richardson	-11.413
▁Willie	-11.413
▁bi	-11.4132
▁depicts	-11.4134
ouch	-11.4135
ami	-11.4137
▁Based	-11.4137
ira	-11.4141
▁wing	-11.4145
▁MY	-11.4147
▁understandable	-11.4148
▁Arab	-11.4148
▁pale	-11.4149
▁BO	-11.4149
▁signs	-11.415
▁wound	-11.4152
▁buffs	-11.4153
▁Phillip	-11.4158
▁nail	-11.4161
-13	-11.4164
▁subplots	-11.4168
▁widely	-11.4172
imp	-11.4174
▁Five	-11.418
cop	-11.4181
Hollywood	-11.4189
probably	-11.4189
House	-11.4189
production	-11.419
▁Timon	-11.419
load	-11.4192
▁Bach	-11.4193
box	-11.4194
▁Aside	-11.4195
15	-11.4197
▁faster	-11.4197
handed	-11.4205
▁designer	-11.4205
▁Sid	-11.4214
▁Mal	-11.4215
▁*****	-11.4216
▁trained	-11.4217
▁stare	-11.4219
laugh	-11.4225
▁Andre	-11.4229
▁slaughter	-11.4231
▁bands	-11.4235
▁RO	-11.4237
Vi	-11.4238
▁noted	-11.4238
big	-11.424
bound	-11.4241
▁exhibit	-11.4245
▁custom	-11.4247
▁dread	-11.4248
▁Baldwin	-11.4249
▁Novak	-11.4249
▁Pearl	-11.4249
▁wheel	-11.4249
▁Chicago	-11.4249
▁Cowboy	-11.4249
▁Scotland	-11.4249
▁minimum	-11.4249
▁plausible	-11.4249
▁primarily	-11.4249
▁prominent	-11.4249
▁recognition	-11.4249
▁travesty	-11.4249
▁vengeance	-11.4249
▁wisdom	-11.4249
▁Shelley	-11.4249
▁warrant	-11.4249
▁distribution	-11.4249
▁composition	-11.4249
▁rational	-11.4249
▁Nathan	-11.425
▁saga	-11.425
▁2002	-11.425
▁blackmail	-11.425
▁revolutionary	-11.425
▁stale	-11.425
▁unhappy	-11.4251
▁foolish	-11.4251
▁3000	-11.4252
▁2"	-11.4252
aving	-11.4255
▁Raines	-11.4256
▁Willis	-11.4256
▁choreographed	-11.4257
▁witnesses	-11.4257
▁constructed	-11.4258
▁Absolutely	-11.4262
▁Imagine	-11.4264
▁MI	-11.4266
▁closest	-11.427
▁nun	-11.4273
▁wandering	-11.4274
▁Rea	-11.4276
▁introduce	-11.4278
▁yelling	-11.4278
▁Chi	-11.4283
▁advanced	-11.4283
▁Alfred	-11.4285
▁rights	-11.4288
▁boom	-11.4299
▁Sw	-11.4302
ALL	-11.4305
▁parties	-11.4306
▁Ian	-11.4307
▁recommendation	-11.4308
▁Rating	-11.431
▁scripts	-11.4315
ERS	-11.4317
SPOILER	-11.4317
▁UN	-11.4319
foot	-11.4322
length	-11.4322
▁methods	-11.4323
▁stinks	-11.4325
▁faults	-11.4328
▁destroying	-11.433
▁kicking	-11.4331
mple	-11.4335
▁Las	-11.4335
▁losers	-11.4339
▁groups	-11.4343
▁Yo	-11.4346
▁disguise	-11.4365
▁expose	-11.4365
▁overlook	-11.4366
fight	-11.437
▁Bull	-11.4371
▁masterful	-11.4371
▁dirt	-11.4372
▁agreed	-11.4377
cious	-11.4378
▁cannibal	-11.4381
▁Wing	-11.4381
▁morbid	-11.4382
▁1983	-11.4382
▁contribution	-11.4382
▁corporate	-11.4382
▁creativity	-11.4382
▁despair	-11.4382
▁empathy	-11.4382
▁responsibility	-11.4382
▁Robbins	-11.4382
▁Fiction	-11.4382
▁debt	-11.4382
▁disorder	-11.4383
▁unpredictable	-11.4383
▁misery	-11.4383
▁Walsh	-11.4383
▁tax	-11.4384
▁cities	-11.4384
uaid	-11.4385
▁Spring	-11.4385
▁property	-11.4385
eff	-11.4386
▁robbery	-11.4386
▁wrestling	-11.4387
▁eaten	-11.4388
▁Scottish	-11.4389
▁Vance	-11.4389
▁laughably	-11.439
mal	-11.4391
▁greedy	-11.4392
▁witches	-11.4393
▁presumably	-11.4393
used	-11.4394
proving	-11.4394
▁Action	-11.4395
▁WAY	-11.4396
▁Short	-11.4396
hip	-11.4397
▁floating	-11.4399
▁underly	-11.4402
▁Greg	-11.4404
▁Break	-11.4405
itch	-11.4407
▁wander	-11.4407
▁HA	-11.4407
▁Given	-11.441
▁exit	-11.4413
▁Boys	-11.4413
▁Pet	-11.4415
▁Plan	-11.4416
▁hates	-11.4416
east	-11.4418
▁correctly	-11.4424
▁Hood	-11.443
▁pretending	-11.4433
▁careers	-11.4437
▁Sh	-11.4438
▁domestic	-11.4444
rock	-11.4444
▁seeks	-11.4449
having	-11.445
▁lock	-11.4456
Th	-11.4457
net	-11.4458
Very	-11.4459
▁Walt	-11.4461
evil	-11.4461
Avoid	-11.4464
▁shortly	-11.4472
▁mode	-11.4474
pen	-11.4481
▁chew	-11.4492
▁fed	-11.4495
vid	-11.4497
▁Lin	-11.4499
▁eager	-11.4502
ola	-11.4504
▁chances	-11.4507
gun	-11.451
▁WATCH	-11.4517
▁decline	-11.4517
▁defense	-11.4517
▁irrelevant	-11.4517
▁manipulative	-11.4517
▁monologue	-11.4517
▁patience	-11.4517
▁silliness	-11.4517
▁beneath	-11.4517
▁Posey	-11.4517
▁adolescent	-11.4517
▁radical	-11.4517
▁dreck	-11.4517
▁visible	-11.4517
▁facing	-11.4518
▁poetry	-11.4518
▁Dickens	-11.4519
▁catching	-11.452
▁Judy	-11.4524
▁Gold	-11.4525
▁popularity	-11.4526
▁Orson	-11.4526
▁prepare	-11.4529
▁granted	-11.4529
▁unre	-11.453
▁Molly	-11.4533
ison	-11.4534
indulgent	-11.4535
▁businessman	-11.4537
▁Ellen	-11.4537
▁Dave	-11.4538
▁doll	-11.4539
▁Fo	-11.4539
▁behold	-11.4542
stage	-11.4543
▁Four	-11.4544
▁Scream	-11.4548
▁resources	-11.455
▁limit	-11.4551
▁ob	-11.4554
▁conceived	-11.4559
▁hilariously	-11.4562
▁aim	-11.4568
▁tasteless	-11.4574
▁patients	-11.4578
▁Head	-11.4582
▁Penn	-11.4584
▁buildings	-11.4588
▁chooses	-11.4589
▁Israel	-11.4594
ique	-11.4596
▁marketing	-11.4598
▁designs	-11.4599
▁Ti	-11.4607
▁online	-11.4608
▁genres	-11.4609
▁supported	-11.4609
▁Fat	-11.4616
▁MA	-11.4617
Se	-11.462
▁Ab	-11.462
▁reward	-11.462
▁painter	-11.4624
-19	-11.463
▁Robot	-11.463
▁addict	-11.463
both	-11.4633
▁OR	-11.4636
yr	-11.4636
▁shout	-11.4641
!!!!!!	-11.4641
▁Hand	-11.4642
▁disgrace	-11.4645
goers	-11.4645
▁musician	-11.4646
▁Russia	-11.465
▁Basinger	-11.4654
▁Hopkins	-11.4654
▁Middle	-11.4654
▁Montana	-11.4654
▁University	-11.4654
▁attorney	-11.4654
▁celebration	-11.4654
▁integrity	-11.4654
▁lackluster	-11.4654
▁opportunities	-11.4654
▁ritual	-11.4654
▁stunned	-11.4654
▁wacky	-11.4654
▁Several	-11.4654
▁civilization	-11.4655
▁Downey	-11.4655
▁alarm	-11.4655
▁Ashley	-11.4655
▁heartbreaking	-11.4655
▁NYC	-11.4656
▁reverse	-11.4656
▁relatives	-11.4656
▁mentioning	-11.4657
▁Biko	-11.4657
▁muddled	-11.4657
▁June	-11.4657
▁chi	-11.4657
▁Gal	-11.4658
▁menace	-11.4658
▁Carell	-11.4659
▁passable	-11.4662
▁Brain	-11.4664
▁stumbled	-11.4664
▁Eventually	-11.4665
▁incompetent	-11.4665
▁Iran	-11.4665
▁intentionally	-11.4666
▁belt	-11.4666
▁Eyes	-11.4668
▁centers	-11.467
▁Name	-11.467
▁Throughout	-11.4672
▁mechanical	-11.4676
▁Gr	-11.4678
▁careful	-11.4679
▁Roth	-11.4681
zo	-11.4684
▁gifted	-11.4687
▁Bay	-11.4688
▁overacting	-11.4688
▁Tan	-11.4691
▁stretched	-11.4691
thing	-11.4692
▁Rex	-11.4693
▁newly	-11.4698
▁fur	-11.4698
▁Hor	-11.4699
▁Josh	-11.4703
▁CAN	-11.4705
▁diver	-11.4707
▁tripe	-11.4708
▁attitudes	-11.4709
▁Mind	-11.4714
Un	-11.4714
bin	-11.4715
▁awhile	-11.4716
▁helpless	-11.4716
▁hall	-11.4716
ula	-11.4721
▁Stooges	-11.4722
wife	-11.4732
Brazil	-11.4732
William	-11.4733
Chris	-11.4734
Peter	-11.4739
Pro	-11.4741
thank	-11.4742
▁statue	-11.4745
▁Sad	-11.4753
actor	-11.4754
ROM	-11.4759
▁Hy	-11.4759
ered	-11.4764
▁Germans	-11.4772
▁1)	-11.4773
▁Water	-11.4776
▁closed	-11.4778
rou	-11.4779
▁drift	-11.4779
anti	-11.4779
▁worker	-11.4781
▁Count	-11.4782
▁port	-11.4783
▁fashioned	-11.4783
▁Wi	-11.4788
▁Cruise	-11.4793
▁Orleans	-11.4793
▁September	-11.4793
▁Streisand	-11.4793
▁Tarantino	-11.4793
▁campaign	-11.4793
▁delicate	-11.4793
▁phony	-11.4793
▁rehash	-11.4793
▁mutant	-11.4793
▁audition	-11.4793
▁darn	-11.4793
▁fought	-11.4793
▁restrict	-11.4793
▁1999	-11.4794
▁Dominic	-11.4794
▁2003	-11.4794
▁cloud	-11.4794
▁et	-11.4795
▁specifically	-11.4795
▁Ethan	-11.4796
stein	-11.4796
▁MTV	-11.4796
▁educational	-11.4797
▁modest	-11.4798
▁exposure	-11.48
▁treats	-11.4801
▁cue	-11.4801
▁Funny	-11.4804
▁auto	-11.4807
aking	-11.4808
▁Keith	-11.4813
▁bread	-11.4814
▁Louise	-11.4816
ico	-11.4818
▁matches	-11.4818
▁Tap	-11.4819
END	-11.482
▁/>1.	-11.4829
▁Par	-11.4831
Love	-11.4833
▁Newman	-11.4834
▁stink	-11.4834
▁Kay	-11.484
▁Sand	-11.4841
▁realised	-11.4842
▁expressed	-11.4842
▁lip	-11.4848
▁channels	-11.4852
▁Shi	-11.4858
glo	-11.4866
rich	-11.4868
▁sucker	-11.4872
pur	-11.4873
particularly	-11.4874
moving	-11.4874
▁employ	-11.4876
Last	-11.4879
▁limits	-11.4881
▁relax	-11.489
AME	-11.4891
headed	-11.4893
▁steam	-11.4898
▁Homer	-11.4899
▁cleverly	-11.49
faced	-11.4901
▁Civil	-11.4909
dance	-11.4913
▁generate	-11.4917
▁tag	-11.4922
▁method	-11.4922
▁garden	-11.4923
▁Earl	-11.4925
▁Friends	-11.4925
zu	-11.4934
▁1996	-11.4934
▁Blockbuster	-11.4934
▁Sheriff	-11.4934
▁Thompson	-11.4934
▁WORST	-11.4934
▁sleaze	-11.4934
▁unravel	-11.4934
▁deaf	-11.4934
▁demise	-11.4934
▁surviving	-11.4934
▁uplifting	-11.4934
▁bumbling	-11.4934
▁grandfather	-11.4934
▁contrary	-11.4934
▁prank	-11.4934
▁rotten	-11.4934
▁angst	-11.4935
▁Six	-11.4935
▁survivors	-11.4935
▁Mormon	-11.4935
▁Major	-11.4935
▁uncover	-11.4935
▁loyalty	-11.4936
60	-11.4937
▁Leigh	-11.4937
▁profit	-11.4937
▁Hawke	-11.4939
▁Kline	-11.4939
▁checked	-11.4941
▁Stallone	-11.4941
▁drove	-11.4943
▁Detective	-11.4943
▁Sabrina	-11.4943
▁Speed	-11.4943
▁difficulties	-11.4944
▁amused	-11.4948
▁Nicholas	-11.4949
▁corn	-11.4951
▁boxer	-11.4954
zed	-11.4954
▁borrowed	-11.4955
NG	-11.4963
▁Final	-11.4965
ken	-11.4967
▁visits	-11.497
note	-11.4974
▁butcher	-11.4979
▁complaining	-11.4982
▁proceeds	-11.4983
▁bugs	-11.4986
▁experiments	-11.4992
▁rope	-11.4993
▁puppet	-11.4997
▁letters	-11.4999
TE	-11.5003
▁rolled	-11.5005
fr	-11.5007
▁su	-11.5017
▁Mol	-11.502
another	-11.502
aries	-11.5022
▁Put	-11.5022
Jane	-11.5026
▁trailers	-11.5026
loud	-11.5034
▁nuts	-11.5034
raw	-11.5036
will	-11.5037
▁dealer	-11.5038
ua	-11.505
▁confirm	-11.5059
▁arrest	-11.5059
▁respected	-11.5059
17	-11.5061
▁astonishing	-11.5061
▁prince	-11.5062
fo	-11.5064
▁Nolan	-11.5064
▁bike	-11.5067
▁fluff	-11.5067
▁ties	-11.507
▁Fair	-11.507
mind	-11.5071
odd	-11.5074
▁WW	-11.5076
▁Virgin	-11.5076
▁Paxton	-11.5077
▁Project	-11.5077
▁sustain	-11.5077
▁transcend	-11.5077
▁Austen	-11.5077
▁Simmons	-11.5077
▁Strong	-11.5077
▁grief	-11.5077
▁heartfelt	-11.5077
▁literature	-11.5077
▁ocean	-11.5077
▁pitiful	-11.5077
▁scarecrow	-11.5077
▁shaky	-11.5077
▁unlikable	-11.5077
▁Therefore	-11.5077
▁narrow	-11.5077
▁faint	-11.5077
▁Palance	-11.5077
▁glance	-11.5077
▁tele	-11.5077
▁Randy	-11.5078
▁species	-11.5078
▁Mask	-11.5078
▁Odd	-11.5078
▁moronic	-11.5079
▁sailor	-11.508
▁neighbors	-11.508
▁Sirk	-11.5081
▁Marty	-11.5082
▁teaches	-11.5084
▁lively	-11.5085
▁hyper	-11.5085
▁Alicia	-11.5085
▁Kar	-11.5085
▁graduate	-11.5086
▁Godzilla	-11.5088
▁tonight	-11.5089
▁von	-11.5089
▁Charlotte	-11.509
▁shootout	-11.5091
▁Shame	-11.5093
▁depicting	-11.5096
▁Amitabh	-11.5096
▁bow	-11.5096
▁Pete	-11.5098
▁coat	-11.5099
▁accompanied	-11.5099
AP	-11.51
▁Christy	-11.5106
▁march	-11.5108
▁Ran	-11.5108
▁sensational	-11.5111
lier	-11.5116
▁lure	-11.5121
uous	-11.5121
▁alternative	-11.5128
dar	-11.5138
▁circle	-11.5145
▁creator	-11.5145
▁pray	-11.5149
Naked	-11.5164
Other	-11.5164
▁GO	-11.5166
▁troops	-11.517
▁distract	-11.5173
▁7.	-11.5177
▁Girls	-11.5178
▁AL	-11.5179
vert	-11.5183
▁greatness	-11.5187
▁22	-11.5192
non	-11.5199
▁greed	-11.5212
▁Massacre	-11.5222
▁Pierce	-11.5222
▁accuracy	-11.5222
▁ambiguous	-11.5222
▁arrival	-11.5222
▁basketball	-11.5222
▁choppy	-11.5222
▁enthusiasm	-11.5222
▁mafia	-11.5222
▁vomit	-11.5222
▁McCoy	-11.5222
▁Sissy	-11.5222
▁elevate	-11.5222
▁valid	-11.5222
▁Ruby	-11.5222
▁biography	-11.5222
▁whale	-11.5222
▁1972	-11.5222
▁Rome	-11.5222
▁depression	-11.5222
▁lush	-11.5222
▁History	-11.5222
▁dysfunctional	-11.5222
▁Laurence	-11.5223
▁Ramones	-11.5223
▁indication	-11.5223
▁straightforward	-11.5223
▁Meyer	-11.5223
▁Alec	-11.5223
▁Sandra	-11.5224
▁Alison	-11.5224
▁attribute	-11.5225
▁Road	-11.5225
▁representation	-11.5226
▁passage	-11.5226
▁Hughes	-11.5227
▁Boyle	-11.5227
▁misleading	-11.5227
▁tacky	-11.5228
▁retired	-11.5228
▁Stuart	-11.5228
▁ethnic	-11.523
▁Nicola	-11.5232
▁nod	-11.5233
▁Frankenstein	-11.5234
▁Raymond	-11.5236
▁Gray	-11.5236
▁Recommended	-11.524
two	-11.524
has	-11.5242
▁receiv	-11.5243
▁Joel	-11.5246
▁engineer	-11.5246
▁1930'	-11.5249
wash	-11.5249
je	-11.5251
▁tower	-11.5253
▁Woo	-11.5256
mann	-11.5261
▁pushing	-11.5264
▁tackle	-11.5265
▁feat	-11.5266
Ka	-11.5267
▁abused	-11.5267
▁yard	-11.5269
▁spine	-11.5269
▁remained	-11.527
lle	-11.5273
▁require	-11.5278
mie	-11.5282
▁Kids	-11.5283
▁chicks	-11.5283
▁Poe	-11.5284
▁agrees	-11.5287
▁Barr	-11.5288
▁wholly	-11.5288
▁randomly	-11.5291
▁orders	-11.5294
▁merits	-11.5295
orro	-11.5296
▁Doc	-11.5298
▁spirits	-11.53
provoking	-11.5309
character	-11.5309
perhaps	-11.5309
modern	-11.5309
▁Lowe	-11.531
0,000	-11.5311
master	-11.5313
directed	-11.5317
▁active	-11.5317
free	-11.5323
Ben	-11.5326
▁embrace	-11.533
▁summ	-11.5333
▁BIG	-11.5348
Du	-11.5351
God	-11.5352
▁remove	-11.5352
▁z	-11.5352
▁bowl	-11.5353
▁slash	-11.5354
▁outline	-11.5358
▁matched	-11.5358
lay	-11.536
beat	-11.5362
▁outfits	-11.5365
▁Sy	-11.5366
▁preposterous	-11.5369
▁examination	-11.5369
▁expedition	-11.5369
▁ingenious	-11.5369
▁insipid	-11.5369
▁rhythm	-11.5369
▁shoddy	-11.5369
▁variation	-11.5369
▁despise	-11.5369
▁flirt	-11.5369
▁Lundgren	-11.5369
▁Rent	-11.5369
▁edgy	-11.5369
▁vital	-11.5369
▁flair	-11.5369
▁automatically	-11.5369
▁Aunt	-11.537
▁Wang	-11.5372
▁priceless	-11.5372
▁frightened	-11.5375
▁mankind	-11.5375
▁arguably	-11.5376
▁Either	-11.5377
PS	-11.5378
▁restored	-11.538
▁ensues	-11.538
▁ruins	-11.5381
▁Gandhi	-11.5383
▁secondary	-11.5384
▁princess	-11.5385
▁Cool	-11.5386
while	-11.5386
▁wounded	-11.5389
oli	-11.539
▁Sleep	-11.5394
▁showdown	-11.5394
ple	-11.5396
▁breed	-11.5396
etti	-11.5403
Jo	-11.5407
▁institution	-11.5407
▁SF	-11.5408
▁gu	-11.541
▁sums	-11.541
fri	-11.543
▁dances	-11.5433
wer	-11.544
▁arch	-11.5455
twist	-11.5459
▁boil	-11.546
▁suggested	-11.5465
▁Sopranos	-11.5465
▁pound	-11.5465
▁aka	-11.5467
lip	-11.5472
notch	-11.5472
▁setup	-11.5476
▁Sub	-11.5483
▁Iron	-11.5483
▁HE	-11.5491
zen	-11.5492
▁minded	-11.5492
▁complaints	-11.5508
▁fundamental	-11.5512
▁conduct	-11.5514
▁poke	-11.5517
▁compete	-11.5517
▁amounts	-11.5518
▁Bronson	-11.5518
▁Kurosawa	-11.5518
▁cliff	-11.5518
▁companies	-11.5518
▁crucial	-11.5518
▁deceased	-11.5518
▁fantasies	-11.5518
▁inconsistent	-11.5518
▁industrial	-11.5518
▁nonsensical	-11.5518
▁profanity	-11.5518
Written	-11.5518
▁candidate	-11.5518
▁muscle	-11.5518
▁session	-11.5518
▁confidence	-11.5518
▁primitive	-11.5518
▁Corbett	-11.5518
▁clone	-11.5518
▁definition	-11.5518
▁Temple	-11.5518
▁ensure	-11.5518
▁steel	-11.5519
▁Beatles	-11.5519
▁Darren	-11.5519
▁fluid	-11.5519
▁apply	-11.5519
▁tv	-11.5522
▁compensate	-11.5522
▁grainy	-11.5523
TION	-11.5526
▁Charl	-11.5526
vyn	-11.5526
▁chills	-11.5526
▁Town	-11.5527
▁Frankie	-11.5527
▁Terrible	-11.553
▁McC	-11.5531
▁hopelessly	-11.5533
▁Fuller	-11.5534
▁Steele	-11.5535
▁Fast	-11.5535
held	-11.5536
▁Everybody	-11.5536
▁According	-11.5538
▁pirate	-11.5538
▁Von	-11.5539
▁Bugs	-11.5547
AND	-11.5568
▁assumed	-11.558
scape	-11.5583
▁wildly	-11.5585
really	-11.5585
force	-11.5588
▁---	-11.5589
▁shared	-11.5602
(..	-11.5605
▁discovering	-11.5608
▁Boo	-11.5609
little	-11.5611
▁Marc	-11.5612
yo	-11.5612
dling	-11.5617
eu	-11.5618
Ch	-11.5622
▁prey	-11.5622
▁profession	-11.5628
Hu	-11.5636
Best	-11.5637
▁Angels	-11.5638
*****	-11.5639
▁tail	-11.5639
fly	-11.5645
ification	-11.5645
taking	-11.5646
▁posted	-11.565
▁establish	-11.5652
▁abrupt	-11.5655
▁premiere	-11.566
▁Forget	-11.5662
▁Sen	-11.5665
nation	-11.5666
▁asylum	-11.567
▁imaginable	-11.567
▁Jordan	-11.567
▁niece	-11.567
▁samurai	-11.567
▁League	-11.567
▁Domino	-11.567
▁DEAD	-11.567
▁Cohen	-11.567
▁region	-11.567
▁hokey	-11.567
▁internal	-11.567
▁heartwarming	-11.5671
▁sixties	-11.5671
▁simultaneously	-11.5671
▁Office	-11.5672
▁viewpoint	-11.5672
▁betrayal	-11.5673
▁petty	-11.5673
▁Brenda	-11.5674
▁brutality	-11.5675
▁Union	-11.5676
▁glasses	-11.5676
▁Meryl	-11.5678
▁harmless	-11.5678
▁Try	-11.5678
▁millionaire	-11.5679
▁Better	-11.568
▁invented	-11.5682
▁respectively	-11.5684
▁Wilder	-11.5686
▁worn	-11.569
ggy	-11.5691
▁translated	-11.5691
▁raises	-11.5694
▁standout	-11.5695
▁analysis	-11.5698
ied	-11.5699
Cha	-11.5711
AM	-11.5714
16	-11.5714
▁/>2.	-11.5715
ridge	-11.5717
▁youngest	-11.5718
▁Note	-11.5721
here	-11.5722
▁filler	-11.5722
▁prisoners	-11.5722
▁x	-11.5732
▁SA	-11.5741
▁historically	-11.5749
)...	-11.575
Before	-11.5763
DVD	-11.5764
child	-11.5764
pass	-11.5766
▁Cop	-11.5771
▁landing	-11.5772
▁skit	-11.5776
Big	-11.5777
▁cur	-11.5783
▁armed	-11.5786
▁flu	-11.5787
app	-11.5791
Many	-11.5792
▁tin	-11.5792
dian	-11.5799
▁vet	-11.58
▁convict	-11.5801
▁cope	-11.5803
▁transport	-11.5806
▁torment	-11.5806
▁DE	-11.5807
▁unfair	-11.5809
▁coast	-11.5814
▁interactions	-11.5818
▁historic	-11.5819
▁swim	-11.5823
▁compassion	-11.5823
▁Carlito	-11.5824
▁DeNiro	-11.5824
▁IMDB	-11.5824
▁Rukh	-11.5824
▁collapse	-11.5824
▁critique	-11.5824
▁insurance	-11.5824
▁judgment	-11.5824
▁misguided	-11.5824
▁mortal	-11.5824
▁participate	-11.5824
▁provocative	-11.5824
▁giggle	-11.5824
▁lurk	-11.5824
▁immature	-11.5824
▁protest	-11.5824
▁smell	-11.5824
▁wives	-11.5824
▁Marshall	-11.5824
▁conscience	-11.5824
▁Technicolor	-11.5824
▁Gere	-11.5824
▁Gillian	-11.5824
▁2007	-11.5824
▁1920	-11.5824
▁couch	-11.5824
▁occasions	-11.5824
▁dismal	-11.5825
▁Alvin	-11.5825
▁minus	-11.5828
dia	-11.5828
▁hopeless	-11.5828
▁astounding	-11.5829
▁Train	-11.5829
▁edition	-11.5829
▁addiction	-11.583
▁Spain	-11.583
▁Alone	-11.5832
▁Until	-11.5833
▁whi	-11.5833
▁Omen	-11.5833
▁grateful	-11.5834
▁caliber	-11.5834
▁Mill	-11.584
▁WHAT	-11.584
▁generated	-11.5842
oni	-11.5847
▁Cube	-11.5848
▁Spacey	-11.5848
▁melting	-11.5848
▁conditions	-11.5855
▁signed	-11.5855
▁pops	-11.5856
▁policeman	-11.5856
▁Kei	-11.5857
▁Hung	-11.5863
▁Turn	-11.5866
▁Reeves	-11.5867
▁caricatures	-11.5867
▁appropriately	-11.587
▁jewel	-11.5875
▁egg	-11.5877
▁Richards	-11.5878
▁musicians	-11.5878
cause	-11.5892
▁rep	-11.5897
▁balls	-11.5897
▁MO	-11.5898
▁generations	-11.5899
gal	-11.59
▁counts	-11.5907
▁buck	-11.5917
These	-11.592
Having	-11.5921
▁Mil	-11.5932
Dan	-11.5938
Com	-11.5943
▁Spa	-11.5944
ston	-11.5945
▁hum	-11.595
▁possess	-11.5955
▁heap	-11.5957
▁puzzle	-11.5963
▁Bal	-11.5965
▁Say	-11.5965
TO	-11.5975
▁programme	-11.5978
▁Amazon	-11.598
▁Chamberlain	-11.598
▁Goldsworthy	-11.598
▁Tierney	-11.598
▁anticipation	-11.598
▁behaviour	-11.598
▁fascination	-11.598
▁giallo	-11.598
▁literary	-11.598
▁twelve	-11.598
▁loneliness	-11.598
▁crawl	-11.598
▁newcomer	-11.598
▁Martian	-11.598
▁neurotic	-11.598
▁verbal	-11.598
▁befriends	-11.5981
▁Buster	-11.5981
▁Garden	-11.5981
idden	-11.5982
▁Stack	-11.5982
▁housewife	-11.5982
▁Half	-11.5983
▁Reid	-11.5985
▁Wedding	-11.5987
▁Nicole	-11.5987
▁Bible	-11.5988
▁Carey	-11.599
▁Murray	-11.599
▁Othello	-11.5992
▁grabs	-11.5992
Ju	-11.5992
▁Blade	-11.5993
▁biased	-11.5993
▁feminist	-11.5994
▁'80	-11.5994
▁neo	-11.5995
▁murdering	-11.6001
▁rises	-11.6003
eri	-11.6005
▁Sweet	-11.6005
▁cancer	-11.6006
live	-11.6006
▁Scary	-11.6014
▁roller	-11.6021
▁Gil	-11.6021
▁angels	-11.6023
▁Whit	-11.6024
▁kissing	-11.6024
Che	-11.6027
cross	-11.6027
▁AN	-11.6028
gram	-11.6031
▁demand	-11.6032
▁voted	-11.6035
▁oldest	-11.604
▁shoulders	-11.6041
▁skits	-11.605
▁dim	-11.6059
open	-11.6065
aud	-11.6071
conscious	-11.6075
Okay	-11.6078
▁posters	-11.608
nothing	-11.608
▁State	-11.6081
rab	-11.6085
▁troubles	-11.6092
▁annoy	-11.6095
▁sand	-11.61
▁realm	-11.6105
mont	-11.6105
▁alcohol	-11.6109
▁Hammer	-11.6111
▁cage	-11.6114
▁Sun	-11.6114
Luc	-11.6115
▁applaud	-11.612
▁Ye	-11.6125
▁Juliet	-11.6125
▁Hawk	-11.6133
▁twins	-11.6135
▁Bart	-11.6136
▁psychopath	-11.6136
▁trauma	-11.6138
▁Attenborough	-11.6138
▁Luckily	-11.6138
▁Preminger	-11.6138
▁activities	-11.6138
▁deranged	-11.6138
▁flavor	-11.6138
▁glaring	-11.6138
▁hackneyed	-11.6138
▁intricate	-11.6138
▁schedule	-11.6138
▁sufficient	-11.6138
▁worship	-11.6138
▁skull	-11.6139
▁spiral	-11.6139
▁Canyon	-11.6139
▁Naturally	-11.6139
▁headache	-11.6139
▁Pickford	-11.6139
▁keen	-11.6139
▁gambling	-11.6139
▁royal	-11.6139
▁unexplained	-11.6139
▁Preston	-11.6139
wilight	-11.6139
▁departure	-11.6139
▁interior	-11.6139
▁exposition	-11.6139
▁mummy	-11.6139
▁banter	-11.614
▁Sharon	-11.614
▁groan	-11.614
▁banal	-11.6141
ION	-11.6141
▁Ebert	-11.6141
▁Bow	-11.6142
▁Sanders	-11.6142
▁height	-11.6143
▁Snow	-11.6143
▁Brendan	-11.6143
▁regardless	-11.6144
▁Whoever	-11.6145
hur	-11.6146
▁delve	-11.6151
▁cream	-11.6151
kind	-11.6151
▁experimental	-11.6151
▁Er	-11.6157
▁Nobody	-11.6158
▁comedians	-11.616
▁suggestion	-11.6161
▁startling	-11.6162
▁Third	-11.6164
▁thrilled	-11.6167
▁Rich	-11.6168
▁lifted	-11.6169
▁inability	-11.6171
▁scores	-11.6172
▁hearted	-11.6172
▁receives	-11.6174
▁noises	-11.6176
▁Main	-11.6179
▁jack	-11.618
ELL	-11.6184
▁/>3.	-11.6186
▁bum	-11.6188
ock	-11.619
▁Hum	-11.6193
▁challenges	-11.6193
▁locale	-11.6197
▁tease	-11.62
vic	-11.6204
▁visited	-11.6207
▁ordered	-11.6208
▁writes	-11.6221
takes	-11.6226
▁flag	-11.6234
▁rats	-11.6238
▁snake	-11.6239
▁servant	-11.6239
Little	-11.624
NO	-11.6247
▁gate	-11.6247
▁Phillips	-11.6249
Rating	-11.625
▁Ren	-11.6256
corn	-11.6258
▁positively	-11.6263
▁bug	-11.6264
▁Games	-11.6264
▁ka	-11.6265
▁tastes	-11.6265
▁masterpieces	-11.6268
▁overact	-11.6269
▁conventions	-11.6269
▁melt	-11.628
▁liners	-11.6283
ATE	-11.6284
▁adore	-11.6285
AGE	-11.6291
tress	-11.6295
▁Powers	-11.6296
▁Jess	-11.6297
▁descend	-11.6299
▁Affleck	-11.63
▁August	-11.63
▁Toronto	-11.63
▁Wagner	-11.63
▁Watson	-11.63
▁camcorder	-11.63
▁disastrous	-11.63
▁fetish	-11.63
▁obsessive	-11.63
▁proportion	-11.63
▁recycled	-11.63
▁Tyler	-11.63
▁spree	-11.63
▁Small	-11.63
▁Betty	-11.63
▁significance	-11.63
▁yawn	-11.63
▁cattle	-11.63
▁pocket	-11.63
▁inexplicably	-11.63
▁Thorn	-11.63
▁Hopefully	-11.63
▁den	-11.6301
▁Boston	-11.6301
▁vain	-11.6301
▁unrelated	-11.6301
▁Ariel	-11.6301
▁vice	-11.6302
▁assassination	-11.6302
▁ballet	-11.6302
▁Leg	-11.6303
▁Foxx	-11.6303
▁Light	-11.6303
cid	-11.6303
▁heist	-11.6304
▁crazed	-11.6304
▁Justice	-11.6305
▁Corman	-11.6305
▁distraction	-11.6305
▁judging	-11.6306
▁absurdity	-11.6307
▁Pamela	-11.6308
▁Production	-11.6308
▁remade	-11.6309
▁sung	-11.631
▁Believe	-11.631
▁precisely	-11.631
▁Harrison	-11.6311
▁Nat	-11.6311
▁Straight	-11.6311
▁Scene	-11.6312
▁Purple	-11.6313
▁stream	-11.6313
▁Creep	-11.6313
▁Pia	-11.6313
▁Simply	-11.6314
▁previews	-11.6315
▁handling	-11.6316
outs	-11.6318
▁glowing	-11.6319
▁rooms	-11.632
▁Gang	-11.6321
▁adopted	-11.6322
▁patch	-11.6322
▁Boyer	-11.6326
case	-11.6326
▁Clarke	-11.6327
▁serving	-11.6329
▁Gable	-11.6329
▁2:	-11.633
cation	-11.6334
▁lips	-11.6342
▁charged	-11.6347
ANT	-11.6352
▁Dana	-11.6352
▁Beth	-11.6354
gard	-11.6356
▁quietly	-11.6364
▁Pictures	-11.6371
ett	-11.6375
break	-11.6378
▁resulting	-11.6378
ional	-11.6379
▁Surely	-11.6382
isation	-11.6389
▁heading	-11.6391
unch	-11.6401
perfect	-11.6403
Which	-11.6404
capable	-11.6405
▁proceed	-11.6406
Dead	-11.6406
▁shoulder	-11.6411
high	-11.6426
▁Original	-11.6428
hey	-11.6432
▁stab	-11.6435
etc	-11.6441
bot	-11.6441
▁Elm	-11.6445
vie	-11.6446
▁universal	-11.6448
▁slim	-11.6454
▁respective	-11.6454
▁solo	-11.6455
▁Mathieu	-11.6464
▁Ritchie	-11.6464
▁WITH	-11.6464
▁Chief	-11.6464
▁Fontaine	-11.6464
▁Guinness	-11.6464
▁despicable	-11.6464
▁eternal	-11.6464
▁massacre	-11.6464
▁misfortune	-11.6464
▁AIDS	-11.6464
▁steady	-11.6464
▁mayhem	-11.6464
▁fruit	-11.6464
▁outdated	-11.6464
▁airplane	-11.6464
▁glamorous	-11.6464
▁mistress	-11.6464
▁tempted	-11.6464
▁drum	-11.6464
▁investigating	-11.6464
▁sickening	-11.6464
▁Silver	-11.6465
▁Harold	-11.6465
have	-11.6465
▁agenda	-11.6466
aunt	-11.6467
▁Beast	-11.6468
▁invention	-11.6468
▁crocodile	-11.6468
▁zoom	-11.6469
▁clash	-11.647
▁shred	-11.647
▁Sunshine	-11.6471
▁dresses	-11.6473
▁admittedly	-11.6474
▁acclaimed	-11.6475
▁Ven	-11.6475
▁Perfect	-11.6475
▁Wish	-11.6478
▁Christine	-11.6478
▁Marion	-11.6478
▁confident	-11.6478
▁strongest	-11.648
▁overlong	-11.648
▁incorrect	-11.648
▁san	-11.6481
▁Christie	-11.6481
▁foil	-11.6481
▁rear	-11.6486
▁weakness	-11.6486
eon	-11.6487
▁fog	-11.6488
▁viewings	-11.6489
ished	-11.649
▁stake	-11.6491
1)	-11.6497
▁dropping	-11.6498
▁rising	-11.6502
▁defined	-11.6502
▁challenged	-11.6516
▁Stars	-11.6517
Ne	-11.652
▁unexpectedly	-11.652
▁gra	-11.6522
▁landscapes	-11.6525
▁Tra	-11.6525
▁purposes	-11.6527
store	-11.654
haw	-11.6541
▁Christians	-11.6542
▁Sc	-11.6547
▁Daniels	-11.6567
fetched	-11.657
▁spit	-11.6571
complete	-11.6571
?!?	-11.6572
▁monk	-11.6575
Will	-11.6577
feel	-11.6577
▁sits	-11.6578
▁rub	-11.6581
▁sale	-11.6582
▁recover	-11.6589
▁bush	-11.659
▁lands	-11.6593
nnie	-11.6594
▁gam	-11.6596
suit	-11.6598
body	-11.6601
▁rates	-11.6601
▁Sur	-11.6602
▁acknowledge	-11.6613
▁illustrate	-11.6613
lian	-11.6614
▁tire	-11.6614
▁Cap	-11.6617
sex	-11.6623
▁trans	-11.6628
fighter	-11.663
▁accompany	-11.663
▁1971	-11.663
▁1973	-11.663
▁Adventure	-11.663
▁Crazy	-11.663
▁FILM	-11.663
▁Goldblum	-11.663
▁Timberlake	-11.663
▁academy	-11.663
▁buffalo	-11.663
▁contempt	-11.663
▁dilemma	-11.663
▁obligatory	-11.663
▁perception	-11.663
▁supply	-11.663
▁transplant	-11.663
▁destiny	-11.663
▁Lukas	-11.663
▁crisp	-11.663
▁imitate	-11.663
▁Chavez	-11.6631
▁entitled	-11.6631
▁surgery	-11.6631
▁pleasing	-11.6631
▁backwards	-11.6631
▁deserving	-11.6631
▁amusement	-11.6631
▁hammy	-11.6632
▁earnest	-11.6632
▁cruelty	-11.6633
▁plate	-11.6635
▁Professor	-11.6635
▁jam	-11.6635
▁lens	-11.6636
▁Chance	-11.6636
▁Kansas	-11.6639
ening	-11.6641
▁Furthermore	-11.6643
▁rejected	-11.6645
▁biker	-11.6645
▁Keep	-11.6645
▁Needle	-11.6648
▁severely	-11.6652
Sam	-11.6652
▁Beyond	-11.6655
▁admirer	-11.6658
bed	-11.666
▁shouting	-11.6662
▁citizens	-11.6666
▁Ok	-11.6667
iver	-11.6678
▁Dor	-11.6679
▁Loy	-11.6687
▁outlaw	-11.6692
▁agency	-11.6695
anna	-11.6701
▁Israeli	-11.6704
▁dressing	-11.6709
▁maniac	-11.671
▁emphasize	-11.671
▁blowing	-11.6725
▁commenting	-11.6726
▁Pig	-11.6726
▁regarded	-11.6727
aft	-11.6728
▁Studios	-11.6736
count	-11.6736
▁difficulty	-11.6736
▁filling	-11.674
fun	-11.6745
▁Gay	-11.6745
arm	-11.6746
▁hippie	-11.6747
▁explores	-11.675
▁objects	-11.6756
ucker	-11.6757
▁haunt	-11.6757
▁singers	-11.6759
got	-11.6761
ombi	-11.6768
Sure	-11.677
▁warming	-11.6772
▁credited	-11.6776
▁stumbles	-11.6782
▁associate	-11.6783
▁rec	-11.6783
▁reluctant	-11.6784
Neill	-11.6793
▁alleged	-11.6797
▁Support	-11.68
▁Central	-11.68
▁Crosby	-11.68
▁Paramount	-11.68
▁circus	-11.68
▁energetic	-11.68
▁terrified	-11.68
▁tunnel	-11.68
▁Conrad	-11.68
▁Savage	-11.68
▁client	-11.68
▁explosive	-11.68
▁slide	-11.68
▁squad	-11.68
▁virtue	-11.68
▁wilderness	-11.68
▁/>4/10	-11.68
▁psychology	-11.68
▁weather	-11.68
▁Storm	-11.68
▁ignorance	-11.68
▁duration	-11.68
▁click	-11.68
▁macho	-11.68
▁bulk	-11.68
▁shaking	-11.68
://	-11.68
▁miniseries	-11.68
▁distress	-11.6801
▁alley	-11.6801
▁Duvall	-11.6801
▁Vader	-11.6801
▁referred	-11.6801
▁Grayson	-11.6801
▁Marlon	-11.6801
▁shopping	-11.6802
▁considerably	-11.6804
▁weaknesses	-11.6804
▁Kung	-11.6804
▁mentality	-11.6806
▁Bernard	-11.6807
▁Loretta	-11.6808
▁Gina	-11.6809
▁Horrible	-11.6809
▁masses	-11.6811
▁Antwone	-11.6813
▁Beauty	-11.6813
▁roots	-11.6814
▁Lindsay	-11.6815
pal	-11.6816
MAN	-11.6821
▁addicted	-11.6822
▁invad	-11.6823
Bad	-11.6825
▁transformed	-11.6828
▁insightful	-11.6831
stick	-11.6832
▁hunters	-11.6832
EST	-11.6833
▁Bride	-11.6833
▁condemn	-11.6837
▁mole	-11.6837
▁woeful	-11.6838
▁desires	-11.6844
▁Grave	-11.6847
▁bur	-11.6847
▁UP	-11.6857
▁hooker	-11.6861
awa	-11.687
▁repeating	-11.6871
ONE	-11.6871
ologist	-11.6871
▁photograph	-11.6872
▁rings	-11.6872
▁March	-11.6873
ural	-11.6876
ali	-11.6882
▁Rangers	-11.6888
▁pages	-11.6889
htt	-11.689
▁Inc	-11.6893
▁additional	-11.6895
▁lifeless	-11.691
****	-11.6911
▁"10	-11.6912
Since	-11.6912
family	-11.6912
writing	-11.6912
Life	-11.6913
winning	-11.6913
Night	-11.6916
wait	-11.6918
▁butler	-11.6919
cool	-11.692
▁caricature	-11.6924
▁Reeve	-11.6924
▁address	-11.6924
iro	-11.6927
unless	-11.6929
▁beard	-11.694
sign	-11.6941
ault	-11.6941
SON	-11.6944
▁Cass	-11.6946
▁Wonder	-11.695
▁nominations	-11.6954
mill	-11.6956
▁Cho	-11.6959
▁geek	-11.6962
▁Shot	-11.6965
▁Chang	-11.6968
▁marrie	-11.697
▁sounding	-11.697
▁1984	-11.6972
▁Fishburne	-11.6972
▁Flash	-11.6972
▁Machine	-11.6972
▁Shadow	-11.6972
▁astronaut	-11.6972
▁brooding	-11.6972
▁comprehend	-11.6972
▁compromise	-11.6972
▁describing	-11.6972
▁elevator	-11.6972
▁exploring	-11.6972
▁femme	-11.6972
▁ghetto	-11.6972
▁inexplicable	-11.6972
▁museum	-11.6972
▁phenomenon	-11.6972
▁seldom	-11.6972
▁suspicion	-11.6972
▁unsuspecting	-11.6972
▁vibrant	-11.6972
▁deleted	-11.6972
▁insanity	-11.6972
▁Huston	-11.6973
▁Mitch	-11.6973
▁glee	-11.6973
▁Word	-11.6973
▁limb	-11.6973
▁stroke	-11.6974
▁mobster	-11.6974
▁Bacon	-11.6975
▁Bros	-11.6975
▁vile	-11.6976
▁iconic	-11.6977
Only	-11.6977
▁Kidman	-11.6977
▁Rita	-11.6978
▁Lena	-11.6979
▁disappears	-11.6979
▁artwork	-11.698
▁Uma	-11.6981
▁iron	-11.6981
▁Denis	-11.6982
▁Should	-11.6982
▁Lex	-11.6983
▁Left	-11.6983
▁chicken	-11.6986
▁Trust	-11.6987
▁Mis	-11.6987
▁pill	-11.6988
▁Cain	-11.6992
▁guests	-11.6993
▁Truly	-11.6994
▁Beat	-11.6994
▁flashy	-11.6994
▁Early	-11.6997
▁cab	-11.6997
▁reflects	-11.6998
▁panic	-11.7
▁guaranteed	-11.7001
▁refused	-11.7001
▁Enter	-11.7001
▁Sox	-11.7004
▁ARE	-11.7004
▁screwed	-11.7005
▁lol	-11.7009
▁ski	-11.7009
▁assist	-11.7013
mash	-11.7015
▁doom	-11.702
eating	-11.7021
GE	-11.7023
▁promises	-11.7023
ann	-11.7024
oriented	-11.7025
▁loaded	-11.7032
▁reader	-11.7034
▁shorter	-11.7036
▁accurately	-11.7044
▁Karl	-11.7047
▁clueless	-11.7047
▁Corn	-11.7057
cru	-11.7063
▁rot	-11.7064
yet	-11.7067
Red	-11.7069
ille	-11.7073
High	-11.7074
ctur	-11.7076
▁scar	-11.708
▁ranch	-11.708
spoiler	-11.7088
fiction	-11.7089
▁messy	-11.7091
liss	-11.7091
stor	-11.7093
▁gar	-11.7094
rise	-11.7097
▁30'	-11.71
▁Dir	-11.7102
▁99	-11.7103
▁doc	-11.7105
5/10	-11.7106
Frank	-11.7107
Bill	-11.7118
▁grin	-11.7121
90	-11.7127
▁seduce	-11.7131
▁Pegg	-11.7137
ata	-11.7139
▁releases	-11.7142
▁immortal	-11.7146
▁smug	-11.7148
▁1939	-11.7148
▁1993	-11.7148
▁Colonel	-11.7148
▁Gilliam	-11.7148
▁Kazan	-11.7148
▁Melissa	-11.7148
▁disregard	-11.7148
▁embark	-11.7148
▁fifty	-11.7148
▁frantic	-11.7148
▁hapless	-11.7148
▁hilarity	-11.7148
▁repulsive	-11.7148
▁unimaginative	-11.7148
▁Adrian	-11.7148
▁Naschy	-11.7148
▁destine	-11.7148
▁rampage	-11.7148
▁definitive	-11.7148
▁WHO	-11.7148
▁Always	-11.7148
▁resume	-11.7148
▁1978	-11.7148
▁entrance	-11.7148
▁knee	-11.7148
▁mannerisms	-11.7148
▁cigarette	-11.7148
▁1997	-11.7148
▁1986	-11.7148
▁Bunny	-11.7148
▁static	-11.7148
▁nightclub	-11.7149
▁yellow	-11.7149
▁collective	-11.7149
▁firing	-11.7149
Eastern	-11.7149
▁recognizable	-11.7149
▁Laugh	-11.715
▁commitment	-11.7151
▁boob	-11.7151
▁youthful	-11.7152
▁Awards	-11.7152
nick	-11.7153
▁translate	-11.7154
▁Christianity	-11.7155
▁infected	-11.7155
▁preachy	-11.7156
▁Mason	-11.7157
▁cartoonish	-11.7157
▁Tam	-11.7157
▁barrel	-11.7158
▁Springer	-11.7158
▁prisoner	-11.7159
▁publicity	-11.716
▁punches	-11.716
▁Brilliant	-11.7162
▁Among	-11.7164
▁rendered	-11.7164
▁Normally	-11.7165
▁needless	-11.717
▁Wizard	-11.717
▁consideration	-11.717
▁Carla	-11.7172
▁Fido	-11.7172
▁Psycho	-11.7174
game	-11.7175
▁forgiven	-11.7175
▁programs	-11.7177
▁employed	-11.7177
nnel	-11.718
▁assured	-11.7182
▁billed	-11.7184
▁newer	-11.7184
▁invest	-11.7184
▁tolerate	-11.7186
▁brown	-11.7187
▁Friend	-11.7188
▁shares	-11.719
▁teachers	-11.7191
▁Party	-11.7193
▁mayor	-11.7195
▁discussing	-11.7196
hang	-11.7201
▁fright	-11.7203
▁fishing	-11.721
▁gems	-11.7216
▁framed	-11.7222
MM	-11.7224
mid	-11.7226
rack	-11.7227
▁snip	-11.7229
▁topics	-11.7241
▁sending	-11.7242
▁shell	-11.7243
oooo	-11.7245
▁pad	-11.7245
turn	-11.7252
▁Royal	-11.7253
▁completed	-11.7254
▁visiting	-11.7256
worth	-11.7256
▁abound	-11.7256
post	-11.7259
▁Mul	-11.7259
▁stalk	-11.7263
People	-11.7266
New	-11.7269
almost	-11.7272
Every	-11.7273
42	-11.7278
ena	-11.7278
▁reminder	-11.7282
▁disgust	-11.7283
▁birds	-11.7283
▁ambition	-11.7283
▁remark	-11.7285
▁norm	-11.7287
▁Jews	-11.7294
▁trials	-11.7298
▁resembl	-11.7299
genre	-11.7301
bla	-11.7301
▁betray	-11.7306
▁bash	-11.7307
▁lone	-11.731
▁immediate	-11.7311
lift	-11.7312
▁hung	-11.7315
mark	-11.7318
▁orphan	-11.7326
▁marvel	-11.7326
▁Miyazaki	-11.7326
▁1969	-11.7326
▁Diamond	-11.7326
▁Einstein	-11.7326
▁Puerto	-11.7326
▁admirable	-11.7326
▁claustrophobic	-11.7326
▁cyborg	-11.7326
▁devastating	-11.7326
▁inaccurate	-11.7326
▁investigator	-11.7326
▁pulp	-11.7326
▁seductive	-11.7326
▁spectacle	-11.7326
▁sublime	-11.7326
▁Gypo	-11.7326
▁anxious	-11.7326
▁assignment	-11.7326
▁provoke	-11.7326
▁BSG	-11.7326
Technically	-11.7326
▁shortcomings	-11.7326
▁Saint	-11.7327
▁spray	-11.7327
▁2008	-11.7327
▁champion	-11.7327
▁Georgia	-11.7327
▁Running	-11.7327
▁DOES	-11.7327
▁Mitchum	-11.7327
▁midnight	-11.7327
▁Wendy	-11.7328
▁suburban	-11.7328
▁Burke	-11.7328
▁Bird	-11.7328
▁brush	-11.7328
noir	-11.7328
▁ripping	-11.7329
▁Judge	-11.7329
▁Native	-11.7329
▁hostage	-11.733
▁dwell	-11.733
▁victory	-11.7331
▁scan	-11.7331
▁phenomenal	-11.7331
▁advertised	-11.7332
▁stopping	-11.7332
▁insert	-11.7332
▁uncut	-11.7333
▁assert	-11.7334
▁Ali	-11.7334
▁glued	-11.7334
▁Dylan	-11.7338
▁speeches	-11.7338
▁demonstrates	-11.7338
-1	-11.7339
▁Locke	-11.734
check	-11.7341
▁namely	-11.7343
▁nerves	-11.7344
▁vastly	-11.735
▁Step	-11.7355
▁demanding	-11.7355
▁similarly	-11.7356
▁emerges	-11.7357
▁fatale	-11.7357
▁/>8/10	-11.7362
▁fingers	-11.7364
▁Less	-11.7368
▁net	-11.7377
▁ol	-11.7382
▁natives	-11.7388
▁outright	-11.7389
▁mail	-11.7393
▁rack	-11.7394
Joe	-11.7395
▁deserted	-11.7399
▁Were	-11.7408
roo	-11.7408
produced	-11.741
miss	-11.7414
▁someday	-11.7422
▁disco	-11.7422
▁studying	-11.7428
▁votes	-11.7428
▁scr	-11.7433
▁Revolution	-11.7434
▁strangers	-11.7434
▁Free	-11.7435
▁layers	-11.7441
Spoiler	-11.7447
RU	-11.745
Lost	-11.745
moral	-11.7451
giving	-11.7451
EY	-11.7454
chy	-11.7464
▁cheat	-11.7467
▁cents	-11.7477
▁siblings	-11.7481
▁motive	-11.7485
▁lean	-11.7488
▁drain	-11.749
▁dominate	-11.7491
▁sometime	-11.7492
▁examine	-11.7492
▁specially	-11.7493
▁expectation	-11.7494
▁sugar	-11.7498
▁sch	-11.7499
▁instrument	-11.7505
cock	-11.7507
▁1936	-11.7508
▁1968	-11.7508
▁Aussie	-11.7508
▁Lennon	-11.7508
▁Thurman	-11.7508
▁bikini	-11.7508
▁dazzling	-11.7508
▁derivative	-11.7508
▁engrossing	-11.7508
▁inevitably	-11.7508
▁legitimate	-11.7508
▁mesmerizing	-11.7508
▁rebellious	-11.7508
▁testament	-11.7508
▁wardrobe	-11.7508
▁Dudley	-11.7508
▁Reiser	-11.7508
▁stairs	-11.7508
▁article	-11.7508
▁rambling	-11.7508
▁strangl	-11.7508
▁Casper	-11.7508
▁Actress	-11.7508
▁extensive	-11.7508
▁suspension	-11.7508
▁chopped	-11.7508
▁inhabitants	-11.7509
▁chore	-11.7509
▁hungry	-11.7509
▁Rule	-11.7509
▁Mabel	-11.7509
▁Knightley	-11.7509
▁hoot	-11.7509
▁activity	-11.751
▁Valley	-11.751
▁CBS	-11.751
▁spice	-11.751
▁collaboration	-11.7511
▁continually	-11.7512
▁Deanna	-11.7512
▁Lifetime	-11.7512
▁homo	-11.7512
▁Order	-11.7515
▁partially	-11.7516
▁unlikeable	-11.7517
▁fuel	-11.7517
▁inspirational	-11.7518
▁Vanessa	-11.7519
▁HAVE	-11.7519
▁satirical	-11.7519
▁slimy	-11.752
▁Liu	-11.752
▁Judd	-11.7522
▁scriptwriter	-11.7522
▁Lauren	-11.7525
Pre	-11.7525
▁disgusted	-11.7527
▁abruptly	-11.7527
▁healthy	-11.7529
▁realities	-11.7532
▁Connor	-11.7534
▁OUT	-11.7535
▁sincerely	-11.7536
fel	-11.7536
ele	-11.7541
nova	-11.7545
11	-11.7545
▁defeated	-11.7545
▁PC	-11.7548
Men	-11.7548
▁dub	-11.7552
▁!!	-11.7555
▁Tone	-11.7559
▁Bottom	-11.7561
▁SG	-11.7562
▁cheaply	-11.7563
verse	-11.7563
▁praised	-11.7564
▁knocked	-11.7575
kov	-11.7585
eye	-11.7586
▁handles	-11.7593
▁hides	-11.7594
utter	-11.7595
ona	-11.7596
▁3)	-11.7599
Panic	-11.7608
▁Sue	-11.761
▁seedy	-11.761
elect	-11.7612
▁centered	-11.7613
▁inhabit	-11.7614
▁morally	-11.7616
▁devices	-11.7617
Final	-11.7619
>	-11.762
▁weaker	-11.7622
rough	-11.7624
▁Bert	-11.7627
▁Magic	-11.7628
present	-11.7629
water	-11.7635
fashioned	-11.7636
▁prepar	-11.7636
▁pie	-11.7637
▁adapt	-11.7645
▁bon	-11.765
▁clan	-11.7652
▁info	-11.7653
▁Vega	-11.7659
mostly	-11.766
▁explode	-11.766
▁asset	-11.7663
▁Demon	-11.7667
▁crook	-11.7676
▁reunite	-11.7676
▁helpful	-11.768
▁Bug	-11.7686
▁LOT	-11.7692
▁Court	-11.7693
▁Bloom	-11.7693
▁Kinnear	-11.7693
▁Troma	-11.7693
▁cemetery	-11.7693
▁expense	-11.7693
▁exterior	-11.7693
▁finance	-11.7693
▁lavish	-11.7693
▁neighbour	-11.7693
▁prospect	-11.7693
▁reliable	-11.7693
▁sarcastic	-11.7693
▁subtext	-11.7693
▁supreme	-11.7693
▁turmoil	-11.7693
▁pioneer	-11.7693
▁smack	-11.7693
▁turd	-11.7693
▁sharing	-11.7693
▁mercy	-11.7693
▁tiger	-11.7693
uentin	-11.7693
▁meandering	-11.7693
▁Curly	-11.7693
▁Frost	-11.7693
▁Esther	-11.7693
▁Twist	-11.7693
▁naughty	-11.7693
▁isolation	-11.7693
▁Gilbert	-11.7693
▁legacy	-11.7694
▁scariest	-11.7694
▁lunch	-11.7694
▁Work	-11.7694
▁MUCH	-11.7694
▁dubious	-11.7694
▁ladder	-11.7694
▁unattractive	-11.7694
▁route	-11.7694
▁Antonioni	-11.7694
▁Fl	-11.7694
▁subtly	-11.7694
▁Country	-11.7695
▁preferred	-11.7695
▁acceptance	-11.7695
▁Hadley	-11.7695
▁ban	-11.7696
▁Room	-11.7696
▁duck	-11.7697
▁spies	-11.7698
▁possession	-11.7698
▁antagonist	-11.7699
ident	-11.7699
▁moderate	-11.7699
▁Jill	-11.77
▁Eugene	-11.7701
▁Color	-11.7702
▁Seed	-11.7702
▁poker	-11.7703
▁crashes	-11.7704
▁symbolic	-11.7707
▁canceled	-11.7707
▁Bates	-11.7709
▁resolved	-11.7709
▁tube	-11.771
▁Kudos	-11.7711
▁dashing	-11.7712
▁tossed	-11.7713
▁signal	-11.7716
TY	-11.7716
▁Shu	-11.7716
▁rainy	-11.7717
▁Outer	-11.7717
▁blatantly	-11.772
▁vividly	-11.772
▁divorced	-11.7722
▁mal	-11.7723
▁huh	-11.7724
▁Clive	-11.7726
hall	-11.7733
yard	-11.7739
▁horn	-11.7739
▁rose	-11.7748
▁pose	-11.7749
▁operate	-11.7755
quin	-11.7758
▁artsy	-11.7765
▁presenting	-11.7769
aki	-11.777
▁cracking	-11.7784
▁stores	-11.7785
▁conveys	-11.7785
agon	-11.7787
▁file	-11.7788
IDE	-11.779
▁partners	-11.7792
▁incorporate	-11.7792
EAR	-11.7797
▁exceptions	-11.78
fast	-11.7802
▁Kind	-11.7807
iving	-11.7809
▁mega	-11.7811
producer	-11.7822
driven	-11.7825
sorry	-11.7825
▁emerge	-11.7831
lig	-11.7835
*1/2	-11.7836
▁Bri	-11.7837
▁surround	-11.7838
▁Thin	-11.7841
▁Spoilers	-11.7841
▁Tea	-11.7841
ei	-11.7842
▁origin	-11.7846
tell	-11.785
▁mag	-11.7852
▁aesthetic	-11.7854
▁announce	-11.7856
Mary	-11.786
▁celebrate	-11.7865
▁amaze	-11.7865
▁relentless	-11.7867
FF	-11.7869
▁residents	-11.7875
▁whip	-11.7876
quel	-11.7878
▁differ	-11.7881
▁Antonio	-11.7882
▁Armstrong	-11.7882
▁Beckinsale	-11.7882
▁Behind	-11.7882
▁Capote	-11.7882
▁chorus	-11.7882
▁corporation	-11.7882
▁filter	-11.7882
▁flood	-11.7882
▁qualify	-11.7882
Invisible	-11.7882
▁Dentist	-11.7882
▁Gerald	-11.7882
▁Longoria	-11.7882
▁WILL	-11.7882
▁blunt	-11.7882
▁eternity	-11.7882
▁fifties	-11.7882
▁flimsy	-11.7882
▁opponent	-11.7882
▁rabbit	-11.7882
esquire	-11.7882
▁conquer	-11.7882
▁DID	-11.7882
▁taboo	-11.7882
▁jarring	-11.7882
▁unsure	-11.7882
▁crank	-11.7883
▁trigger	-11.7883
▁kidnapping	-11.7883
▁Niven	-11.7883
▁courtroom	-11.7883
▁Bruno	-11.7883
▁Potter	-11.7883
▁Buddy	-11.7883
▁Kitty	-11.7883
▁copied	-11.7883
▁referring	-11.7883
▁Hotel	-11.7884
▁zone	-11.7884
▁Stella	-11.7884
▁waves	-11.7885
▁Instinct	-11.7887
▁23	-11.7887
▁regime	-11.7887
▁kiddie	-11.7888
▁PLEASE	-11.7888
▁aggressive	-11.7888
▁Mira	-11.789
▁infant	-11.789
▁flashes	-11.7891
▁noticeable	-11.7892
▁eats	-11.7892
▁Hale	-11.7893
▁growth	-11.7893
▁Caron	-11.7894
▁Patricia	-11.7894
▁Pokemon	-11.7895
▁rapidly	-11.7897
▁eventual	-11.7899
▁Trier	-11.7907
wall	-11.7907
your	-11.791
▁cliches	-11.791
▁damaged	-11.7911
????	-11.7913
ride	-11.7914
lev	-11.7915
▁switched	-11.7922
▁Care	-11.7927
populated	-11.7929
▁DA	-11.793
▁Seem	-11.7935
▁Deep	-11.7938
▁formed	-11.7941
rim	-11.7951
▁Fr	-11.7962
▁east	-11.797
own	-11.7973
mad	-11.7978
▁adaptations	-11.7987
via	-11.7992
Rock	-11.7995
▁ships	-11.8002
▁wanders	-11.8002
lyn	-11.8007
▁Off	-11.8012
quality	-11.8012
▁paintings	-11.8014
Daniel	-11.8014
Lewis	-11.8014
before	-11.8014
▁nails	-11.8015
hit	-11.8018
▁charms	-11.802
▁Wu	-11.8021
▁sooner	-11.8021
bidden	-11.8021
phone	-11.8022
city	-11.8022
Doo	-11.8022
TS	-11.8025
without	-11.8027
▁Hay	-11.8031
▁pr	-11.8032
Our	-11.8032
iva	-11.8034
▁refuse	-11.8036
▁Ce	-11.804
dog	-11.8041
▁mechanic	-11.8043
▁moron	-11.8045
▁error	-11.8047
▁corpses	-11.8054
▁BR	-11.8061
▁Actors	-11.8065
▁GR	-11.8068
▁excess	-11.807
▁fabric	-11.8074
▁Austin	-11.8074
▁Berkeley	-11.8074
▁Hepburn	-11.8074
▁MUST	-11.8074
▁Sarandon	-11.8074
▁Soderbergh	-11.8074
▁arguing	-11.8074
▁cerebral	-11.8074
▁estranged	-11.8074
▁hybrid	-11.8074
▁jaded	-11.8074
▁mutual	-11.8074
▁pedestrian	-11.8074
▁physics	-11.8074
▁triangle	-11.8074
▁1933	-11.8074
▁Bogart	-11.8074
▁Giallo	-11.8074
▁buzz	-11.8074
▁unwilling	-11.8074
▁assuming	-11.8074
▁identical	-11.8074
▁eleven	-11.8074
▁motor	-11.8074
▁Hindi	-11.8074
▁1989	-11.8075
elle	-11.8075
▁Kathryn	-11.8075
▁limitations	-11.8075
▁accessible	-11.8075
▁Wave	-11.8075
▁AM	-11.8075
▁pump	-11.8076
▁Carmen	-11.8076
ivity	-11.8076
▁promotion	-11.8076
▁authorities	-11.8076
▁loop	-11.8076
▁Giant	-11.8076
▁characteristics	-11.8076
▁unseen	-11.8076
▁pathos	-11.8077
▁overblown	-11.8077
▁Masterson	-11.8077
▁bible	-11.8077
▁Wong	-11.8078
▁Timmy	-11.8078
▁wrestler	-11.8078
▁Hot	-11.8079
Take	-11.8079
▁Nights	-11.8082
99	-11.8083
▁promptly	-11.8085
▁stranded	-11.8085
▁affects	-11.8086
▁insect	-11.8087
▁Beverly	-11.8088
▁Fairy	-11.8088
▁Polly	-11.8089
▁Producer	-11.8089
▁Werewolf	-11.809
▁updated	-11.8091
▁Compare	-11.8091
▁Claude	-11.8093
▁organized	-11.8093
▁visitor	-11.8096
▁recreate	-11.8096
pel	-11.8097
▁arrow	-11.8102
PO	-11.8102
▁Spin	-11.8108
atory	-11.8109
▁rewarding	-11.8111
▁NY	-11.8117
chen	-11.8117
▁token	-11.8119
race	-11.812
▁Others	-11.8126
▁Flo	-11.8126
▁pat	-11.8127
▁lighter	-11.8127
▁separated	-11.813
▁awaken	-11.8135
cam	-11.8135
arian	-11.8136
▁grind	-11.8139
vern	-11.814
print	-11.8141
▁Need	-11.8151
▁verge	-11.8152
▁Looking	-11.8158
▁Herman	-11.816
*********	-11.816
▁cheerful	-11.8163
▁claiming	-11.8169
super	-11.8175
ured	-11.8183
▁replay	-11.8184
early	-11.8186
▁Inter	-11.8189
IES	-11.8191
▁Ang	-11.8192
road	-11.8195
▁nuances	-11.8197
▁Jar	-11.8197
▁depict	-11.8197
▁belly	-11.8199
nivers	-11.8206
far	-11.8208
lik	-11.8209
shock	-11.8211
▁inherent	-11.8214
monster	-11.8214
ridden	-11.8215
telling	-11.8221
▁opt	-11.8223
▁render	-11.8229
scenes	-11.823
▁75	-11.8236
▁observe	-11.8245
sort	-11.8246
▁increase	-11.8253
▁strain	-11.8253
phy	-11.8256
▁rapid	-11.8257
▁Pri	-11.8261
▁Errol	-11.8268
▁Arquette	-11.827
▁Sentinel	-11.827
▁Service	-11.827
▁electronic	-11.827
▁fragile	-11.827
▁peculiar	-11.827
▁splash	-11.827
▁suffice	-11.827
▁undeniably	-11.827
▁underneath	-11.827
▁unsatisfying	-11.827
▁Hawaii	-11.827
▁babies	-11.827
▁Martha	-11.827
▁Laurie	-11.8271
▁/>7/10	-11.8271
▁tolerable	-11.8271
▁Fried	-11.8271
▁whiny	-11.8271
▁1988	-11.8271
▁descent	-11.8271
▁redneck	-11.8271
OTHER	-11.8271
▁distributor	-11.8271
▁stray	-11.8271
▁Madsen	-11.8271
▁racing	-11.8271
▁studies	-11.8271
▁parade	-11.8272
▁Irene	-11.8272
▁Gamera	-11.8272
▁genetic	-11.8273
▁illusion	-11.8274
▁authenticity	-11.8274
▁washed	-11.8275
▁bombs	-11.8275
▁controlled	-11.8275
▁drill	-11.8276
▁Danish	-11.8276
▁Alba	-11.8277
nice	-11.8278
▁Lois	-11.828
▁hardship	-11.8281
▁Today	-11.8282
mine	-11.8282
▁'60	-11.8283
▁tenant	-11.8285
▁Marine	-11.8285
▁grass	-11.8285
▁drinks	-11.8286
▁Heath	-11.8286
▁wolf	-11.8287
▁Stupid	-11.8289
▁comeback	-11.829
mir	-11.8292
▁filmmaking	-11.8295
▁disguised	-11.8296
▁masterfully	-11.8296
UM	-11.8296
nish	-11.8296
▁threatened	-11.8299
▁entirety	-11.83
fish	-11.83
▁enhanced	-11.83
▁comparisons	-11.8303
▁Gone	-11.8305
▁Lili	-11.8312
▁entered	-11.8315
▁bro	-11.8317
▁Opera	-11.8317
▁evoke	-11.8319
▁justified	-11.8322
▁Boss	-11.8322
orious	-11.8324
Files	-11.8327
▁sinking	-11.8327
▁expertly	-11.8327
▁delighted	-11.8329
▁gained	-11.8332
▁entering	-11.8333
▁sales	-11.8334
▁marginal	-11.8336
dan	-11.8336
ndi	-11.8337
▁Away	-11.8339
▁hop	-11.8342
▁peaceful	-11.8343
▁Sara	-11.8344
▁servants	-11.8345
▁pu	-11.8347
▁Fly	-11.8349
▁cater	-11.8351
▁enthusiastic	-11.8353
▁IV	-11.8357
▁Tel	-11.8361
▁sec	-11.8361
▁demonic	-11.8364
▁hateful	-11.837
▁Pen	-11.8376
▁defie	-11.8382
▁scam	-11.8387
▁answered	-11.839
▁Ry	-11.8393
▁Toni	-11.8394
ego	-11.8398
▁jet	-11.84
scene	-11.8408
Dark	-11.8408
▁connections	-11.841
Three	-11.841
Nothing	-11.8411
cheek	-11.8411
▁gall	-11.8412
erotic	-11.8413
must	-11.8415
▁Kor	-11.8421
Yet	-11.8423
▁excellently	-11.8424
gate	-11.8426
Ex	-11.8426
ucci	-11.8427
▁approaching	-11.8428
14	-11.8434
shoot	-11.8435
▁evolution	-11.8437
▁principals	-11.8445
▁dive	-11.8445
aught	-11.8448
Any	-11.8448
▁nerve	-11.8451
▁linger	-11.8451
does	-11.8454
Eye	-11.8455
▁echo	-11.8458
▁assure	-11.8463
▁accepts	-11.8466
▁Peck	-11.8467
▁update	-11.847
▁Cassavetes	-11.847
▁Columbia	-11.847
▁Fairbanks	-11.847
▁Feinstone	-11.847
▁Gielgud	-11.847
▁Hackman	-11.847
▁Ingrid	-11.847
▁NBC	-11.847
▁Pacific	-11.847
▁Seymour	-11.847
▁Sophie	-11.847
▁Sydney	-11.847
▁experiencing	-11.847
▁improbable	-11.847
▁tendency	-11.847
▁/>10/10	-11.847
▁Creek	-11.847
▁historian	-11.847
▁phase	-11.847
▁feeble	-11.8471
▁blink	-11.8471
▁landmark	-11.8471
▁advertisement	-11.8471
▁Hooper	-11.8471
▁Jolie	-11.8471
▁Throw	-11.8471
▁Theatre	-11.8471
▁jacket	-11.8471
▁slack	-11.8471
▁Tomei	-11.8471
▁Mouse	-11.8472
▁posing	-11.8472
▁stripper	-11.8472
▁communication	-11.8473
▁airport	-11.8473
▁wax	-11.8473
▁Drama	-11.8473
▁candle	-11.8474
▁Terror	-11.8475
▁mush	-11.8475
▁possesses	-11.8476
▁chat	-11.8476
▁Salman	-11.8476
VER	-11.8476
▁Mick	-11.8477
▁resulted	-11.8479
▁weave	-11.8479
▁Randolph	-11.848
▁avenge	-11.848
▁offbeat	-11.8481
▁masks	-11.8481
▁located	-11.8482
▁published	-11.8483
▁Winchester	-11.8483
▁steer	-11.8484
▁daylight	-11.8484
▁Private	-11.8485
▁heels	-11.8485
▁selected	-11.8486
▁cookie	-11.8486
raj	-11.8487
▁frog	-11.8491
horn	-11.8492
▁Toby	-11.8493
▁tormented	-11.8494
▁owners	-11.8494
▁Direction	-11.8494
▁approaches	-11.8495
state	-11.8497
▁Asia	-11.8502
▁trivial	-11.8502
▁tho	-11.8504
HA	-11.851
▁Heck	-11.8515
Home	-11.8516
thin	-11.8518
mates	-11.8518
▁scrap	-11.852
▁differently	-11.8522
▁grounds	-11.8522
▁sim	-11.8526
▁Chill	-11.8527
▁begging	-11.853
tical	-11.8535
▁strings	-11.8545
▁judged	-11.8548
hib	-11.8555
▁spec	-11.8558
anne	-11.8581
tech	-11.8582
▁puppets	-11.8583
▁pairing	-11.8586
▁lib	-11.8595
craft	-11.8595
▁taped	-11.8598
▁substitute	-11.8601
▁Frankly	-11.8612
▁classy	-11.8613
eur	-11.8613
ika	-11.8613
numbing	-11.8614
▁boo	-11.8614
sound	-11.8614
Old	-11.8615
normal	-11.8615
happy	-11.8615
▁ward	-11.8616
respect	-11.8618
talent	-11.8618
Making	-11.8628
▁Same	-11.863
lop	-11.8634
▁exploits	-11.864
haha	-11.8641
aker	-11.8642
▁woo	-11.8644
▁plotting	-11.8645
▁float	-11.8649
▁union	-11.8651
▁Wo	-11.8653
▁expand	-11.8656
▁manipulate	-11.8657
▁Muppets	-11.8658
▁ensue	-11.8659
▁Winter	-11.8659
media	-11.8661
▁mute	-11.8662
▁deer	-11.867
▁Fans	-11.8672
▁complement	-11.8674
▁Audrey	-11.8674
▁Communist	-11.8674
▁KNOW	-11.8674
▁Phoenix	-11.8674
▁Tokyo	-11.8674
▁clerk	-11.8674
▁comprise	-11.8674
▁inclusion	-11.8674
▁leather	-11.8674
▁redundant	-11.8674
▁ridicule	-11.8674
▁senior	-11.8674
▁Edith	-11.8674
▁Network	-11.8674
▁TCM	-11.8674
choosing	-11.8674
▁disabled	-11.8674
▁psychologist	-11.8674
▁LOL	-11.8674
▁motorcycle	-11.8675
▁vibe	-11.8675
▁ordeal	-11.8675
▁Sundance	-11.8675
▁puppy	-11.8675
▁Evelyn	-11.8675
▁Bryan	-11.8675
▁Otto	-11.8675
▁organization	-11.8675
▁Blunt	-11.8675
▁whining	-11.8675
▁Born	-11.8675
▁joking	-11.8675
▁nauseating	-11.8675
▁bucket	-11.8675
▁paycheck	-11.8675
▁salt	-11.8676
▁tramp	-11.8676
▁Cast	-11.8676
▁limp	-11.8676
▁:-)	-11.8676
▁Bank	-11.8676
▁Garland	-11.8676
▁widescreen	-11.8677
▁Rush	-11.8677
▁Dandy	-11.8677
▁theories	-11.8678
▁Wright	-11.8678
▁sentimentality	-11.8678
▁fence	-11.8679
▁Lester	-11.8679
▁Character	-11.8683
▁weep	-11.8684
▁ponder	-11.8684
▁sticking	-11.8684
▁Duck	-11.8684
▁Worse	-11.8686
▁300	-11.8688
▁excruciatingly	-11.8688
▁Must	-11.8688
▁Dust	-11.8689
▁Colin	-11.869
▁Want	-11.8691
cio	-11.8693
▁alert	-11.8693
▁Natalie	-11.8695
▁Animal	-11.8695
▁Jared	-11.8695
▁popping	-11.8697
▁revere	-11.8697
▁pub	-11.8697
▁Awful	-11.8698
▁HK	-11.8698
front	-11.8703
▁Der	-11.8704
Both	-11.8705
▁Bol	-11.8709
bat	-11.8714
▁beside	-11.8716
▁settled	-11.8717
▁factors	-11.8718
▁neatly	-11.8719
cule	-11.8722
▁conveyed	-11.8733
▁routines	-11.8734
▁swearing	-11.8735
▁indifferent	-11.8736
▁guards	-11.8741
hold	-11.8744
▁rescued	-11.8746
▁wisely	-11.8754
▁starters	-11.8754
▁END	-11.8764
▁95	-11.877
▁landed	-11.8772
▁SC	-11.8782
▁approached	-11.879
AC	-11.8792
▁Shah	-11.8797
▁suitabl	-11.8799
burn	-11.8804
Second	-11.8807
▁meal	-11.881
Mart	-11.8814
▁Bla	-11.8816
▁brat	-11.8816
▁wounds	-11.8819
train	-11.8821
Bottom	-11.8822
much	-11.8825
ggle	-11.8828
▁shameful	-11.8835
Too	-11.8835
▁Tak	-11.8835
Did	-11.8837
▁um	-11.8843
gone	-11.8844
date	-11.8845
urb	-11.8847
▁reject	-11.885
▁Gus	-11.8851
▁leaders	-11.8854
▁mixing	-11.8854
▁demonstrate	-11.8858
▁temper	-11.8864
▁evolve	-11.8866
▁colours	-11.8869
▁revolve	-11.8872
▁breast	-11.8874
iko	-11.8878
LOW	-11.8878
vil	-11.8881
▁revel	-11.8881
▁Cecil	-11.8882
▁1979	-11.8883
▁1987	-11.8883
▁Detroit	-11.8883
▁Emperor	-11.8883
▁Minnelli	-11.8883
▁Netflix	-11.8883
▁Pixar	-11.8883
▁Python	-11.8883
▁TIME	-11.8883
▁Truman	-11.8883
▁denouement	-11.8883
▁fierce	-11.8883
▁invasion	-11.8883
▁kudos	-11.8883
▁manipulation	-11.8883
▁monitor	-11.8883
▁privilege	-11.8883
▁reinforce	-11.8883
▁salvage	-11.8883
▁snuff	-11.8883
▁turtle	-11.8883
▁unanswered	-11.8883
▁unsympathetic	-11.8883
▁vintage	-11.8883
▁casino	-11.8883
▁warehouse	-11.8883
▁Collins	-11.8883
▁Shepard	-11.8883
▁cruise	-11.8883
▁Busey	-11.8883
▁shelter	-11.8883
▁injured	-11.8883
▁draft	-11.8883
▁rumor	-11.8883
▁1995	-11.8883
▁Blaise	-11.8883
▁informative	-11.8883
▁raising	-11.8883
▁Thankfully	-11.8884
▁sought	-11.8884
▁Runner	-11.8884
▁jock	-11.8884
▁Act	-11.8884
▁midget	-11.8885
▁diverse	-11.8885
▁stance	-11.8885
▁crop	-11.8886
▁breakdown	-11.8886
▁Boris	-11.8887
▁Les	-11.8887
▁stardom	-11.8888
▁subway	-11.8888
▁spout	-11.8889
▁Egypt	-11.8889
▁Million	-11.8889
▁fever	-11.889
▁peril	-11.889
▁Beach	-11.889
▁outrage	-11.889
▁efficient	-11.889
▁STAR	-11.8891
▁anticipated	-11.8891
sexual	-11.8891
▁brainless	-11.8893
▁absorbing	-11.8894
▁magician	-11.8895
▁Valentine	-11.8898
▁gray	-11.8899
▁Christina	-11.89
▁Atlantis	-11.89
▁declare	-11.89
▁Shining	-11.8901
▁Came	-11.8902
▁chill	-11.8903
track	-11.8904
▁Fight	-11.8906
▁convicted	-11.8907
▁Speaking	-11.8908
▁mum	-11.8908
▁pursued	-11.8916
▁attended	-11.8919
▁Happy	-11.892
▁bury	-11.8922
70	-11.8927
▁Mae	-11.8929
▁Citizen	-11.893
▁Def	-11.893
▁Nation	-11.8931
▁vis	-11.8935
▁Buy	-11.8936
▁breathe	-11.8937
▁Indiana	-11.8943
▁Gooding	-11.8943
▁Moe	-11.8943
▁photographs	-11.8944
▁Leave	-11.8955
▁bent	-11.8959
▁likewise	-11.8959
▁crashing	-11.896
ended	-11.8962
▁delightfully	-11.8966
▁Secondly	-11.8968
▁rounded	-11.8975
ju	-11.9
order	-11.9
BO	-11.9003
ome	-11.9006
fro	-11.9007
▁plug	-11.9011
▁avid	-11.9017
▁goals	-11.902
Hara	-11.9023
path	-11.9028
Steve	-11.9031
natural	-11.9032
coat	-11.9033
▁Fun	-11.9035
Meanwhile	-11.9035
Blood	-11.9035
Much	-11.9035
adventure	-11.9035
filled	-11.9036
Return	-11.9036
▁psyche	-11.9036
please	-11.9037
▁insights	-11.9042
talk	-11.9052
say	-11.9059
▁Foot	-11.9062
▁Damn	-11.9063
ility	-11.9063
▁cloth	-11.9066
boo	-11.9068
▁item	-11.9069
boat	-11.9077
▁neglect	-11.9077
▁grant	-11.908
▁spirited	-11.9087
▁contestants	-11.9088
▁intentional	-11.909
▁defin	-11.909
▁Korea	-11.9091
▁1959	-11.9096
▁1974	-11.9096
▁Clooney	-11.9096
▁Gibson	-11.9096
▁Harriet	-11.9096
▁McCarthy	-11.9096
▁Visconti	-11.9096
▁abortion	-11.9096
▁continuing	-11.9096
▁hollow	-11.9096
▁ominous	-11.9096
▁releasing	-11.9096
▁sensible	-11.9096
▁spontaneous	-11.9096
▁stylized	-11.9096
▁substantial	-11.9096
▁Impact	-11.9096
▁coffin	-11.9096
▁implied	-11.9096
▁wheelchair	-11.9096
▁Ronald	-11.9096
▁Warrior	-11.9096
▁aftermath	-11.9096
▁sorrow	-11.9096
▁Collette	-11.9096
▁shining	-11.9096
▁patron	-11.9096
▁curtain	-11.9096
▁1976	-11.9096
▁swept	-11.9096
▁Jenna	-11.9096
▁Chong	-11.9096
hound	-11.9096
▁request	-11.9097
▁Agent	-11.9097
▁underwear	-11.9097
▁unnatural	-11.9098
▁Monty	-11.9099
▁dictator	-11.9099
▁Russo	-11.9099
▁underworld	-11.9099
▁spill	-11.91
▁ripoff	-11.9101
▁YOUR	-11.9101
▁Nina	-11.9101
▁gentleman	-11.9102
▁suppress	-11.9102
▁Few	-11.9102
▁repressed	-11.9103
▁download	-11.9103
▁Cuban	-11.9104
▁Rider	-11.9107
ITY	-11.9112
▁Philo	-11.9112
▁Luis	-11.9112
▁campus	-11.9115
▁ape	-11.9116
▁Pol	-11.9117
▁Robertson	-11.9121
▁jealousy	-11.9121
▁bitten	-11.9122
▁distracted	-11.9122
▁bosses	-11.9123
▁rewarded	-11.9124
lew	-11.9124
▁promoted	-11.9125
cen	-11.9126
▁sniper	-11.9132
▁tremendously	-11.9135
▁alot	-11.9135
girls	-11.9137
▁aided	-11.9139
▁gasp	-11.9149
▁economic	-11.9152
▁freaking	-11.9154
▁intro	-11.9154
▁endlessly	-11.916
▁longest	-11.9163
▁lap	-11.9166
▁Kin	-11.9167
▁conscious	-11.9175
▁Vol	-11.9178
▁Near	-11.9179
stead	-11.9184
▁insults	-11.9186
▁obstacles	-11.9186
▁passengers	-11.9186
▁cliched	-11.9193
AKE	-11.9193
▁Holy	-11.9202
▁whine	-11.9203
▁Him	-11.9205
▁traits	-11.9211
▁sock	-11.9213
18	-11.9217
▁Bridges	-11.9218
▁upside	-11.9221
▁croc	-11.9223
▁Cry	-11.9224
meaning	-11.9231
▁coupled	-11.9231
title	-11.924
▁cleaning	-11.9248
father	-11.9251
second	-11.9254
midst	-11.9254
▁depends	-11.9254
▁parallels	-11.9255
ival	-11.9267
▁fulfill	-11.9268
▁Tara	-11.9273
▁invent	-11.9274
voiced	-11.9276
▁Low	-11.9277
▁commits	-11.9278
▁Mostly	-11.9278
▁packs	-11.9279
▁freaks	-11.928
▁glow	-11.929
enchant	-11.9294
▁reviewing	-11.9295
▁inherit	-11.9295
▁resolve	-11.9296
▁bias	-11.93
▁Kent	-11.9309
▁survivor	-11.9311
▁slut	-11.9312
▁Euro	-11.9312
▁shoe	-11.9312
▁traffic	-11.9313
▁Toy	-11.9313
▁Bernsen	-11.9313
▁Brashear	-11.9313
▁Cheadle	-11.9313
▁Dafoe	-11.9313
▁DeMille	-11.9313
▁Gwyneth	-11.9313
▁Olivia	-11.9313
▁STILL	-11.9313
▁Samurai	-11.9313
▁Schneider	-11.9313
▁Together	-11.9313
▁assembled	-11.9313
▁bubble	-11.9313
▁degenerate	-11.9313
▁dwarf	-11.9313
▁exploding	-11.9313
▁macabre	-11.9313
▁playwright	-11.9313
▁thieves	-11.9313
WARNING	-11.9313
▁Company	-11.9313
▁Sweden	-11.9313
▁bounty	-11.9313
▁Cushing	-11.9313
▁caretaker	-11.9313
▁injustice	-11.9313
▁strive	-11.9313
▁plodding	-11.9313
▁churn	-11.9313
Sudden	-11.9313
▁nutshell	-11.9313
▁Beckham	-11.9313
▁Combs	-11.9313
▁Haines	-11.9313
▁Guess	-11.9313
▁unconventional	-11.9313
▁Gregory	-11.9313
▁Vince	-11.9313
▁Simple	-11.9313
▁Loren	-11.9313
▁orange	-11.9314
▁Harlow	-11.9314
▁Porter	-11.9314
▁taut	-11.9314
▁foster	-11.9314
▁skinny	-11.9314
▁drab	-11.9315
▁adjust	-11.9315
▁mystical	-11.9315
▁funding	-11.9315
▁raid	-11.9315
▁underwater	-11.9315
▁adaption	-11.9316
▁minister	-11.9316
▁Iranian	-11.9317
▁Franklin	-11.9317
▁thrust	-11.9317
▁Arkin	-11.9318
▁undead	-11.9318
▁crippled	-11.9318
heart	-11.9319
▁Marx	-11.9319
▁Post	-11.9319
▁Dom	-11.932
▁Vampires	-11.932
▁restrained	-11.932
▁brick	-11.932
▁cries	-11.9321
▁furniture	-11.9322
▁Silverman	-11.9323
▁Debbie	-11.9323
▁Clearly	-11.9324
wind	-11.9325
▁Children	-11.9325
▁Empire	-11.9326
cute	-11.9327
AVE	-11.9329
▁Anil	-11.9334
▁outdoor	-11.9335
▁Fever	-11.9336
▁freaky	-11.9337
▁accounts	-11.9337
▁stalker	-11.9338
▁Place	-11.9338
▁seasoned	-11.9341
▁apt	-11.9341
astic	-11.9344
▁stalking	-11.9345
▁prim	-11.9347
▁evidently	-11.935
heads	-11.935
▁origins	-11.935
▁afterward	-11.9353
wick	-11.9357
▁Elliott	-11.9359
▁aiming	-11.9361
▁coke	-11.9363
▁avoiding	-11.9364
▁tuned	-11.9365
▁poses	-11.9365
▁characteristic	-11.9366
▁surfer	-11.9367
▁vignettes	-11.9371
▁covering	-11.9373
along	-11.9374
▁skilled	-11.9379
▁*1/2	-11.9384
▁embarrassingly	-11.9384
▁playful	-11.9384
hat	-11.9386
-10	-11.9387
▁fleshed	-11.9392
King	-11.9394
▁hyped	-11.9395
crew	-11.9402
▁rang	-11.9403
...........	-11.9405
omi	-11.941
▁parking	-11.9413
▁suspected	-11.9418
▁Tess	-11.942
▁Mack	-11.9421
same	-11.9422
▁mod	-11.9426
▁TR	-11.9429
Par	-11.9437
▁PA	-11.9447
jokes	-11.9453
▁accepting	-11.9466
wit	-11.9466
▁Mag	-11.9467
conceived	-11.9475
Titanic	-11.9475
professional	-11.9475
White	-11.9475
yeah	-11.9475
political	-11.9475
despite	-11.9475
people	-11.9475
documentary	-11.9475
Charles	-11.9476
Unlike	-11.9477
▁CA	-11.948
▁colleagues	-11.9487
▁compos	-11.9495
▁convinces	-11.9496
hell	-11.9497
More	-11.9504
▁forties	-11.9504
▁sober	-11.9512
bill	-11.9514
▁register	-11.9517
▁attacking	-11.9517
PE	-11.9519
▁wipe	-11.952
▁frank	-11.952
classic	-11.9524
▁gloss	-11.9525
▁contradict	-11.9526
▁Natali	-11.9527
hom	-11.9529
▁caution	-11.9535
Brien	-11.9535
reservation	-11.9535
▁1985	-11.9535
▁1991	-11.9535
▁Jagger	-11.9535
▁Jersey	-11.9535
▁Liotta	-11.9535
▁Olsen	-11.9535
▁Samantha	-11.9535
▁Scorsese	-11.9535
▁Snipes	-11.9535
▁Spencer	-11.9535
▁centuries	-11.9535
▁innuendo	-11.9535
▁morph	-11.9535
▁policy	-11.9535
▁pretension	-11.9535
▁thirties	-11.9535
▁unappealing	-11.9535
▁university	-11.9535
▁carnage	-11.9535
▁Parsons	-11.9535
▁lecture	-11.9535
▁Bachchan	-11.9535
▁bittersweet	-11.9535
▁stabbed	-11.9535
▁saint	-11.9535
▁Miranda	-11.9535
▁polite	-11.9535
▁Wayans	-11.9535
▁Abbot	-11.9535
▁anguish	-11.9535
▁1977	-11.9535
▁1994	-11.9535
▁havoc	-11.9535
▁branch	-11.9535
▁graveyard	-11.9535
▁Thailand	-11.9536
▁crown	-11.9536
▁Evans	-11.9536
▁spider	-11.9536
▁bastard	-11.9536
▁enigmatic	-11.9536
▁Coburn	-11.9536
▁revisit	-11.9536
▁slapped	-11.9536
▁Herbert	-11.9537
▁tomatoes	-11.9538
▁homosexuality	-11.9538
iac	-11.9538
▁EVERY	-11.9538
▁salesman	-11.9538
▁Cody	-11.9539
▁Goldie	-11.954
five	-11.954
▁artistry	-11.9541
▁dynamics	-11.9542
▁Episode	-11.9543
▁secure	-11.9543
▁Money	-11.9543
▁filthy	-11.9545
IST	-11.9545
▁MJ	-11.9545
▁Enterprise	-11.9545
▁Renaissance	-11.9545
▁readily	-11.9546
▁Denise	-11.9547
▁horny	-11.9548
▁dumbest	-11.9548
▁Conan	-11.9549
▁Firstly	-11.9549
▁summarize	-11.955
▁respectable	-11.9551
▁Dumb	-11.9553
▁exec	-11.9553
▁tech	-11.9553
▁Lance	-11.9554
▁Greene	-11.9554
▁Victorian	-11.9555
playing	-11.9556
▁Lea	-11.9557
▁novelty	-11.9558
▁stalked	-11.9558
▁Vera	-11.9558
▁Stargate	-11.9559
▁/>7	-11.9561
▁Brett	-11.9561
christ	-11.9566
▁morons	-11.9569
▁bio	-11.9571
▁informed	-11.9574
▁101	-11.9575
ARD	-11.9579
▁coma	-11.9579
▁/>4.	-11.9583
▁admired	-11.9583
▁boost	-11.9587
▁balanced	-11.9593
▁mi	-11.9594
▁Soul	-11.9596
▁forbidden	-11.96
thought	-11.9604
▁Sim	-11.9606
iller	-11.9608
▁reviewed	-11.9614
bility	-11.962
▁Jacques	-11.962
▁coal	-11.9629
▁readers	-11.963
▁unusually	-11.963
▁Gate	-11.9635
Bar	-11.9639
▁Palm	-11.9642
▁Gram	-11.9643
▁blamed	-11.9645
▁foundation	-11.9645
▁surroundings	-11.965
▁mysteriously	-11.9656
▁circles	-11.9656
wear	-11.9662
Gee	-11.9685
▁void	-11.9691
round	-11.9696
ground	-11.9697
quite	-11.97
typical	-11.9702
spirited	-11.9702
▁Paz	-11.9702
Batman	-11.9702
Everything	-11.9702
Because	-11.9703
Mad	-11.9716
ronic	-11.9719
▁Jose	-11.9721
music	-11.9723
▁Sco	-11.9726
▁preach	-11.9728
▁stud	-11.9731
▁engine	-11.9734
door	-11.9738
▁confuse	-11.9746
▁determine	-11.9746
▁extend	-11.9746
▁Tar	-11.9748
ease	-11.9749
▁mish	-11.9752
never	-11.9756
▁insomnia	-11.9759
▁vamp	-11.9762
▁Faith	-11.9762
▁Meredith	-11.9762
▁Plenty	-11.9762
▁Rohmer	-11.9762
▁Turkish	-11.9762
▁Venezuela	-11.9762
▁Vonnegut	-11.9762
▁WRONG	-11.9762
▁applies	-11.9762
▁capacity	-11.9762
▁destination	-11.9762
▁escaping	-11.9762
▁inaccuracies	-11.9762
▁lunatic	-11.9762
▁medieval	-11.9762
▁misunderstood	-11.9762
▁occult	-11.9762
▁optimistic	-11.9762
▁psychedelic	-11.9762
▁relevance	-11.9762
▁rhyme	-11.9762
▁shrink	-11.9762
▁Nolte	-11.9762
▁chemical	-11.9762
▁diminish	-11.9762
▁existential	-11.9762
▁gigantic	-11.9762
▁regain	-11.9762
▁relating	-11.9762
▁Bauer	-11.9762
▁misfit	-11.9762
▁Stiles	-11.9763
▁compound	-11.9763
▁unstable	-11.9763
▁enchanting	-11.9763
▁mythology	-11.9763
ealand	-11.9763
▁Kathy	-11.9763
▁Keller	-11.9763
▁Anything	-11.9763
▁annoyance	-11.9763
▁screwball	-11.9763
▁polar	-11.9763
▁Bravo	-11.9763
▁Garfield	-11.9763
▁bald	-11.9763
▁Hawn	-11.9764
▁Cedric	-11.9764
▁mentor	-11.9764
▁Horse	-11.9765
▁stating	-11.9765
▁drew	-11.9765
▁popped	-11.9765
▁spaceship	-11.9765
▁diner	-11.9766
▁mold	-11.9766
▁customers	-11.9766
▁commentator	-11.9767
▁daddy	-11.9767
▁supporter	-11.9769
▁Brent	-11.9769
▁vent	-11.977
▁Jacob	-11.977
▁resident	-11.9771
▁Ernest	-11.9772
▁contestant	-11.9772
▁Omar	-11.9772
▁payoff	-11.9772
▁Godard	-11.9772
▁glossy	-11.9773
▁fascist	-11.9774
▁acquired	-11.9775
best	-11.9776
▁Beowulf	-11.9777
▁Wrong	-11.9777
▁fable	-11.9779
▁bones	-11.978
▁relentlessly	-11.9781
▁fuss	-11.9781
▁wield	-11.9784
▁Lab	-11.9786
▁chronicle	-11.9789
▁Chen	-11.979
▁Directed	-11.9794
▁followers	-11.9799
▁glove	-11.9808
▁Spy	-11.9808
trust	-11.981
▁mud	-11.9813
▁cycle	-11.9813
▁pee	-11.9816
▁attending	-11.9819
▁Kit	-11.9819
▁Egg	-11.9822
EW	-11.9824
▁encountered	-11.983
▁Lead	-11.9837
▁regularly	-11.9848
HE	-11.9859
▁Emil	-11.986
▁breathing	-11.9863
▁arguments	-11.9864
▁wine	-11.9866
▁intensely	-11.9871
▁Jude	-11.9876
▁Gig	-11.9878
▁Luc	-11.9882
▁marked	-11.9896
▁enable	-11.9896
▁tack	-11.9901
▁Dam	-11.9902
▁revive	-11.9906
▁gestures	-11.9907
▁Maris	-11.9909
jack	-11.9915
▁chip	-11.9925
Arthur	-11.9935
Jason	-11.9935
Jean	-11.9935
Film	-11.9935
first	-11.9935
Basically	-11.9935
dramatic	-11.9936
Paris	-11.9937
bird	-11.9937
▁rig	-11.9937
culture	-11.9937
Sorry	-11.9937
▁mirrors	-11.9938
mission	-11.9938
▁distinguish	-11.9941
characterisation	-11.9943
Wow	-11.9944
▁HO	-11.995
▁Side	-11.9951
▁prom	-11.9958
▁trivia	-11.9958
▁Sheen	-11.996
ography	-11.9962
▁worms	-11.9966
▁sweep	-11.9969
▁(!)	-11.997
zombie	-11.9971
▁interrupt	-11.9977
Miss	-11.9978
▁select	-11.9979
close	-11.9979
▁excruciating	-11.998
personal	-11.9981
▁Simpsons	-11.9987
▁Blonde	-11.999
atherine	-11.9994
▁1981	-11.9995
▁Blandings	-11.9995
▁Depression	-11.9995
▁Dietrich	-11.9995
▁Exorcist	-11.9995
▁Galactica	-11.9995
▁Pfeiffer	-11.9995
▁Portuguese	-11.9995
▁Shepherd	-11.9995
▁Urban	-11.9995
▁biopic	-11.9995
▁blossom	-11.9995
▁controversy	-11.9995
▁fifth	-11.9995
▁horrified	-11.9995
▁persuade	-11.9995
▁platform	-11.9995
▁prevail	-11.9995
▁uncanny	-11.9995
▁understatement	-11.9995
▁Crystal	-11.9995
▁buffoon	-11.9995
▁mount	-11.9995
▁retrieve	-11.9995
▁decay	-11.9995
▁outlandish	-11.9995
▁sincerity	-11.9995
▁Dunst	-11.9995
▁parrot	-11.9995
▁Gackt	-11.9995
▁Aaron	-11.9995
▁Mountain	-11.9995
▁Kinski	-11.9995
▁taxi	-11.9995
▁cherish	-11.9995
▁witchcraft	-11.9995
▁Cliff	-11.9995
▁Madison	-11.9995
▁Mamet	-11.9996
▁furious	-11.9996
▁cease	-11.9996
▁Harron	-11.9996
▁harass	-11.9996
▁feast	-11.9996
▁desk	-11.9996
▁Egyptian	-11.9996
▁grey	-11.9996
▁Prison	-11.9996
▁Jedi	-11.9997
▁Pumbaa	-11.9997
▁Tenant	-11.9997
▁Interesting	-11.9997
oogie	-11.9998
▁mice	-11.9998
▁Moreover	-11.9998
▁intact	-11.9998
▁Northam	-11.9998
▁temple	-12
▁Jud	-12
▁spur	-12
Watching	-12.0001
▁introducing	-12.0001
▁Hayes	-12.0002
▁Body	-12.0002
▁Boring	-12.0002
▁skeptical	-12.0003
▁collector	-12.0004
earth	-12.0006
▁sway	-12.0006
▁nuanced	-12.0006
▁awareness	-12.0007
▁IMO	-12.0008
▁Admittedly	-12.0009
▁Hollow	-12.0009
NN	-12.0009
▁Dahmer	-12.001
▁DJ	-12.0011
▁Romeo	-12.0014
▁Silent	-12.0014
▁sleepwalk	-12.0015
▁pole	-12.0016
▁celebrated	-12.0016
▁Hour	-12.0018
▁Phantom	-12.0019
▁Find	-12.0022
▁Martino	-12.0025
▁joint	-12.0028
▁north	-12.0028
▁widowed	-12.0031
▁establishing	-12.0035
plete	-12.0035
▁dumped	-12.0037
Glen	-12.0039
▁frontal	-12.0039
▁discussed	-12.004
▁Ultimately	-12.004
▁tomb	-12.0045
▁28	-12.0049
Ed	-12.0051
▁ambitions	-12.0051
▁ok	-12.0055
88	-12.0061
itive	-12.0063
▁linear	-12.0065
▁traps	-12.0067
atch	-12.0068
▁listing	-12.007
▁midst	-12.0072
iel	-12.0077
anger	-12.0082
▁snakes	-12.0084
▁contemplat	-12.0085
86	-12.0087
▁manic	-12.0088
disc	-12.01
▁bombing	-12.0102
late	-12.0107
rlock	-12.0109
flo	-12.0111
▁pounds	-12.0111
▁goat	-12.0112
▁shameless	-12.0115
▁Suit	-12.0118
▁shades	-12.0122
▁likeable	-12.0132
zzie	-12.0133
▁Anti	-12.0134
▁inmates	-12.014
▁SOME	-12.0147
▁sy	-12.0152
▁colored	-12.0153
original	-12.0153
▁mighty	-12.0155
▁Ham	-12.0156
▁duel	-12.0165
▁Muslims	-12.0165
▁WE	-12.0166
▁Scarlet	-12.0167
emble	-12.017
inducing	-12.0172
Girl	-12.0173
Blue	-12.0173
frame	-12.0173
Christopher	-12.0173
wrote	-12.0173
Brian	-12.0173
flick	-12.0174
mouthed	-12.0177
Over	-12.0178
plus	-12.0179
▁Job	-12.0183
nzo	-12.0185
▁indulge	-12.0188
▁disturb	-12.019
piece	-12.0191
whose	-12.0191
▁slugs	-12.0197
▁Wil	-12.0202
graph	-12.0202
fla	-12.0204
▁decid	-12.0205
▁novelist	-12.0214
poor	-12.0214
▁eliminate	-12.0216
▁precise	-12.0218
▁literal	-12.0218
▁elder	-12.0218
▁filth	-12.0223
▁sunk	-12.0224
▁Russ	-12.0226
▁restore	-12.0228
▁Michel	-12.0229
seen	-12.023
▁Prom	-12.0231
▁amuse	-12.0233
▁fragment	-12.0233
▁Dreyfuss	-12.0233
▁LIKE	-12.0233
▁Television	-12.0233
▁VCR	-12.0233
▁abomination	-12.0233
▁biblical	-12.0233
▁fraud	-12.0233
▁junior	-12.0233
▁license	-12.0233
▁monotonous	-12.0233
▁necessity	-12.0233
▁quasi	-12.0233
▁quintessential	-12.0233
▁vapid	-12.0233
▁Bennett	-12.0233
▁Voyager	-12.0233
▁atrocity	-12.0233
▁Rowlands	-12.0233
▁choir	-12.0233
▁overbearing	-12.0233
Follow	-12.0233
▁analyze	-12.0233
▁Suzanne	-12.0233
▁Creasy	-12.0233
▁discipline	-12.0233
▁MacDonald	-12.0233
▁videotape	-12.0233
▁Ernie	-12.0233
▁repair	-12.0233
▁chock	-12.0233
▁Lucille	-12.0233
▁Clara	-12.0233
▁honour	-12.0233
▁Reagan	-12.0234
▁elite	-12.0234
▁unfamiliar	-12.0234
▁undertone	-12.0234
▁frat	-12.0234
▁Sgt	-12.0234
▁resistance	-12.0234
▁Angelina	-12.0234
▁inspector	-12.0234
▁sunny	-12.0234
▁luckily	-12.0234
▁Joker	-12.0234
▁ambiguity	-12.0234
▁investment	-12.0235
▁Romance	-12.0235
▁accomplishment	-12.0236
▁monkeys	-12.0236
▁sail	-12.0237
▁digest	-12.0237
▁carpet	-12.0237
▁shotgun	-12.0238
▁lighthearted	-12.0238
▁agony	-12.0239
▁Islam	-12.0239
▁unclear	-12.0239
▁Artemisia	-12.024
▁NOW	-12.024
▁Liam	-12.024
▁snowman	-12.0241
▁sketches	-12.0241
▁exclusively	-12.0241
▁Spider	-12.0244
▁reek	-12.0245
▁realistically	-12.0246
Natural	-12.0246
▁conveniently	-12.0246
▁Doesn	-12.0247
▁Wendigo	-12.0247
UGH	-12.0248
▁perverted	-12.0248
witch	-12.0248
▁pipe	-12.025
▁profile	-12.025
▁Lara	-12.0251
▁Muppet	-12.0252
▁momentum	-12.0253
▁Liz	-12.0253
▁thumb	-12.0253
▁neglected	-12.0253
▁thug	-12.0254
fused	-12.0254
▁coolest	-12.0255
▁Cross	-12.0256
▁invested	-12.0258
▁eagerly	-12.0261
▁rendering	-12.0265
▁Goodman	-12.0265
13	-12.0268
▁Alas	-12.0268
▁stereotyped	-12.027
▁explodes	-12.0276
▁commend	-12.0276
▁July	-12.0277
▁Pul	-12.0282
▁CAR	-12.0283
▁confession	-12.0285
▁slaves	-12.0285
▁unfolding	-12.0285
!")	-12.0285
▁forgetting	-12.0286
▁Midnight	-12.029
▁tightly	-12.0295
▁pimp	-12.0302
▁inflict	-12.0304
breaking	-12.0305
meter	-12.0308
▁safely	-12.0308
osh	-12.0308
▁Going	-12.031
zar	-12.0329
▁Ve	-12.0336
▁uniforms	-12.034
Pu	-12.0348
▁Bridget	-12.0352
▁grabbe	-12.0363
▁Spade	-12.0366
haired	-12.0369
▁Gre	-12.037
MB	-12.0376
later	-12.0381
▁SI	-12.0381
save	-12.0387
ramp	-12.0392
actually	-12.0395
due	-12.0399
blood	-12.04
nder	-12.0407
▁sheet	-12.041
Cinderella	-12.0417
Besides	-12.0417
shirt	-12.0417
together	-12.0417
drawn	-12.0417
Those	-12.0417
Unless	-12.0419
however	-12.042
Jones	-12.0421
▁CHA	-12.0422
▁sup	-12.0425
corp	-12.0427
▁axe	-12.0427
since	-12.0428
▁executives	-12.043
Never	-12.0431
oth	-12.0431
▁users	-12.0431
▁enthusiast	-12.0438
turned	-12.0439
▁ray	-12.0439
Get	-12.0441
▁observations	-12.0447
▁Lind	-12.045
waiting	-12.0453
▁Lilli	-12.0453
▁interpret	-12.0455
true	-12.0461
▁virtual	-12.0462
▁(?)	-12.0463
elda	-12.0467
gang	-12.0469
▁sentences	-12.0469
▁heir	-12.0471
base	-12.0472
▁graceful	-12.0473
▁reports	-12.0474
▁admitted	-12.0475
▁sensual	-12.0476
▁scandal	-12.0476
▁perpetual	-12.0477
▁1944	-12.0477
▁Cinematography	-12.0477
▁Czech	-12.0477
▁Fellini	-12.0477
▁Fitzgerald	-12.0477
▁Globe	-12.0477
▁Haunting	-12.0477
▁Lampoon	-12.0477
▁Marilyn	-12.0477
▁Maureen	-12.0477
▁abstract	-12.0477
▁bachelor	-12.0477
▁bimbo	-12.0477
▁celebrities	-12.0477
▁component	-12.0477
▁espionage	-12.0477
▁feminine	-12.0477
▁oblivious	-12.0477
▁paranoid	-12.0477
▁tomorrow	-12.0477
▁varied	-12.0477
▁werewolves	-12.0477
▁Aniston	-12.0477
▁Couple	-12.0477
▁Ferrell	-12.0477
▁Kirsten	-12.0477
▁bloke	-12.0477
▁colonial	-12.0477
▁Shatner	-12.0477
▁tactics	-12.0477
▁essay	-12.0477
Gloria	-12.0477
▁transparent	-12.0477
▁whimsical	-12.0477
▁counsel	-12.0477
▁injury	-12.0477
▁Center	-12.0477
▁foremost	-12.0477
▁Sunrise	-12.0477
▁hijack	-12.0477
▁Fritz	-12.0477
▁Daisy	-12.0477
▁Sebastian	-12.0477
odiac	-12.0477
▁Seattle	-12.0477
▁Thunder	-12.0477
▁Finney	-12.0477
▁predator	-12.0477
▁pornography	-12.0477
▁vault	-12.0478
▁incest	-12.0478
▁faux	-12.0478
▁Hannah	-12.0478
▁Payne	-12.0478
▁Bonnie	-12.0478
▁rewrite	-12.0478
BTW	-12.0478
▁revival	-12.0478
▁slob	-12.0479
▁hick	-12.0479
▁Debra	-12.0479
deemed	-12.0479
▁spotlight	-12.048
rotting	-12.048
▁Anita	-12.048
▁Pitch	-12.048
▁sheep	-12.048
▁Kingdom	-12.048
▁depart	-12.048
fact	-12.0481
▁Might	-12.0481
▁gloomy	-12.0482
▁eyeball	-12.0482
▁Dern	-12.0483
▁Juan	-12.0483
▁hardened	-12.0485
▁stumble	-12.0485
▁undermine	-12.0485
▁captivated	-12.0486
▁Stephanie	-12.0487
olo	-12.0487
▁dramatically	-12.0488
▁irritated	-12.0488
▁Kolchak	-12.0488
▁Thief	-12.0488
▁Isabelle	-12.0489
▁Chile	-12.0489
▁distributed	-12.0489
▁rejects	-12.0492
▁Whilst	-12.0494
▁gunfight	-12.0495
scale	-12.0497
▁Revenge	-12.0497
▁Shanghai	-12.0497
neck	-12.0497
▁realization	-12.05
Dog	-12.05
▁Ricky	-12.0501
▁drowning	-12.0501
▁sour	-12.0501
▁similarity	-12.0501
▁wholesome	-12.0507
▁Lone	-12.0509
▁Dani	-12.0509
▁enduring	-12.051
▁meantime	-12.0511
▁freeze	-12.0513
▁addressed	-12.0515
▁Tobe	-12.0515
▁hysterically	-12.0517
▁progressed	-12.0521
▁mobile	-12.0522
▁rant	-12.0522
▁;)	-12.0522
▁Hardly	-12.0524
ado	-12.0526
▁bog	-12.0531
▁kit	-12.0532
▁feeding	-12.0535
▁participants	-12.0536
▁placement	-12.0542
lord	-12.0548
▁capitalize	-12.0549
Story	-12.0552
voc	-12.0555
▁Pink	-12.0555
BS	-12.056
▁Doug	-12.0563
▁decor	-12.0579
▁Pay	-12.0588
▁Brooke	-12.0588
▁Sant	-12.0597
bag	-12.06
working	-12.06
▁BA	-12.0611
eering	-12.0619
standing	-12.0636
▁outsider	-12.0639
code	-12.0641
▁Card	-12.0647
▁/>****	-12.065
Summ	-12.0653
▁Tell	-12.0655
▁baddies	-12.0656
sided	-12.0658
Tim	-12.0659
▁wings	-12.0661
▁dolls	-12.0662
realistic	-12.0667
Seriously	-12.0667
effects	-12.0667
edited	-12.0668
space	-12.0669
level	-12.067
▁/>1)	-12.0674
ois	-12.0676
pop	-12.0677
found	-12.0681
▁embarrass	-12.0682
▁Row	-12.0685
▁flowers	-12.0687
var	-12.0695
▁chuckles	-12.0701
Mel	-12.0706
▁temp	-12.0707
immer	-12.071
▁cancel	-12.071
▁deliberate	-12.0712
▁environmental	-12.0718
▁List	-12.0723
killer	-12.0724
apocalyptic	-12.0727
▁Englund	-12.0727
▁Express	-12.0727
▁Johansson	-12.0727
▁Junior	-12.0727
▁Possibly	-12.0727
▁Redgrave	-12.0727
▁Sergio	-12.0727
▁Sophia	-12.0727
▁Soylent	-12.0727
▁Takashi	-12.0727
▁Tomatoes	-12.0727
▁arrogance	-12.0727
▁complications	-12.0727
▁cunning	-12.0727
▁determination	-12.0727
▁earliest	-12.0727
▁fiasco	-12.0727
▁lurid	-12.0727
▁parodies	-12.0727
▁raunchy	-12.0727
▁saloon	-12.0727
▁sleeve	-12.0727
▁unnerving	-12.0727
▁Cindy	-12.0727
▁Mafia	-12.0727
▁anthology	-12.0727
▁fuzzy	-12.0727
▁replies	-12.0727
▁Crime	-12.0727
▁Busby	-12.0727
▁Kilmer	-12.0727
▁implication	-12.0727
▁Cheech	-12.0727
▁hesitate	-12.0727
▁eyebrow	-12.0727
Welcome	-12.0727
▁flea	-12.0727
▁Schmid	-12.0727
▁Ealing	-12.0727
▁genie	-12.0727
▁boundaries	-12.0727
▁exploitative	-12.0728
▁karate	-12.0728
▁drummer	-12.0728
▁Britney	-12.0728
▁Journey	-12.0728
▁representative	-12.0728
▁Norris	-12.0728
▁kingdom	-12.0728
▁Barker	-12.0728
▁stepmother	-12.0728
▁Segal	-12.0728
▁choke	-12.0728
▁classmates	-12.0728
▁Marvin	-12.0728
▁mustache	-12.0729
▁stride	-12.0729
▁Corey	-12.0729
▁noteworthy	-12.0729
▁sanity	-12.0729
▁Garner	-12.0729
OLD	-12.073
▁Cassie	-12.073
▁WOW	-12.073
▁delay	-12.073
▁Lionel	-12.0731
▁GOD	-12.0731
▁unconscious	-12.0731
▁demeanor	-12.0731
▁GET	-12.0731
▁Ultimatum	-12.0732
west	-12.0733
▁Kir	-12.0736
25	-12.0736
▁Fantasy	-12.0737
▁narrated	-12.0738
▁villainous	-12.0738
lessness	-12.0738
▁Box	-12.0738
▁arranged	-12.0738
▁communist	-12.0739
▁satisfaction	-12.0739
▁Borg	-12.0739
▁moan	-12.074
▁Thunderbirds	-12.074
▁closure	-12.0742
▁Edge	-12.0744
▁Slow	-12.0744
▁drowned	-12.0744
give	-12.0745
▁gig	-12.0747
psy	-12.075
▁dominated	-12.0751
▁stabbing	-12.0751
▁superstar	-12.0753
baked	-12.0754
▁caf	-12.0754
▁educated	-12.0755
▁flame	-12.0755
▁gro	-12.0757
▁observation	-12.0758
▁demonstrated	-12.0758
▁cannon	-12.0762
▁Stop	-12.0763
▁justification	-12.0763
▁exploited	-12.0765
▁Moss	-12.0766
▁altered	-12.0766
▁Attack	-12.0766
▁handy	-12.0767
▁items	-12.0767
▁reflected	-12.0771
Ah	-12.0773
▁daytime	-12.0773
▁defy	-12.078
▁/>3/10	-12.078
▁worm	-12.0781
empt	-12.0787
wig	-12.0788
lover	-12.0791
ISH	-12.0792
rah	-12.0794
▁imply	-12.0794
▁MAR	-12.0795
▁roughly	-12.0795
▁begun	-12.08
bbed	-12.0801
Add	-12.0804
▁flashing	-12.0807
boiled	-12.0807
▁monks	-12.0811
▁interviewed	-12.0811
▁ju	-12.0816
igan	-12.0823
Gi	-12.0823
▁Rocky	-12.0825
▁>	-12.0826
▁hug	-12.0827
tale	-12.0828
▁Warhols	-12.0834
▁Reb	-12.0836
▁cameraman	-12.0836
▁truthful	-12.0839
erous	-12.084
▁searched	-12.0843
ched	-12.0844
▁Carlos	-12.0847
▁Paula	-12.0854
▁robotic	-12.0858
▁listened	-12.0866
Holes	-12.087
▁Corb	-12.0876
▁Monkeys	-12.0881
▁Crow	-12.0892
Pol	-12.0892
▁weekly	-12.0892
▁crossing	-12.0898
▁DR	-12.0901
▁weary	-12.0906
▁Tiger	-12.0907
▁ratio	-12.0914
▁sham	-12.0918
▁sensation	-12.0922
Midnight	-12.0923
daughter	-12.0923
Sound	-12.0923
Yeah	-12.0923
centered	-12.0923
About	-12.0923
Stephen	-12.0923
Henry	-12.0923
dream	-12.0923
Death	-12.0925
ital	-12.0926
guard	-12.0926
blo	-12.0926
▁entertainer	-12.0929
bomb	-12.0929
Jim	-12.0931
▁instruct	-12.0931
Back	-12.0934
▁tasteful	-12.0938
▁flames	-12.0952
▁presume	-12.0966
arious	-12.0971
DER	-12.0972
Ray	-12.0976
▁tid	-12.0976
Was	-12.0976
▁dash	-12.0977
▁convent	-12.0981
▁Isabel	-12.0982
▁submit	-12.0983
▁meteor	-12.0983
▁patriarch	-12.0983
▁shudder	-12.0983
▁snatch	-12.0983
Hobgoblins	-12.0983
▁BLOOD	-12.0983
▁Benjamin	-12.0983
▁Depardieu	-12.0983
▁Edmund	-12.0983
▁Entertainment	-12.0983
▁Gandolfini	-12.0983
▁Kristofferson	-12.0983
▁Krueger	-12.0983
▁Lopez	-12.0983
▁Meadows	-12.0983
▁acquaintance	-12.0983
▁admiration	-12.0983
▁assumption	-12.0983
▁ceiling	-12.0983
▁clunky	-12.0983
▁cocaine	-12.0983
▁constraints	-12.0983
▁detached	-12.0983
▁ghastly	-12.0983
▁harrowing	-12.0983
▁imaginary	-12.0983
▁medicine	-12.0983
▁obscurity	-12.0983
▁sensibilities	-12.0983
▁athletic	-12.0983
▁colony	-12.0983
▁gorilla	-12.0983
▁suave	-12.0983
▁Myrna	-12.0983
▁Doyle	-12.0983
▁gymnast	-12.0983
▁wrist	-12.0983
▁stamp	-12.0983
▁Suddenly	-12.0984
▁handicapped	-12.0984
▁incestuous	-12.0984
▁offense	-12.0984
▁studied	-12.0984
▁laboratory	-12.0984
▁awry	-12.0984
▁1945	-12.0984
▁slum	-12.0984
▁admission	-12.0984
▁lump	-12.0984
▁Following	-12.0984
▁spew	-12.0984
▁palace	-12.0984
▁Bonham	-12.0984
▁cancelled	-12.0984
▁perverse	-12.0984
▁Miami	-12.0984
▁Rodney	-12.0984
▁Arnie	-12.0984
▁knight	-12.0984
▁Wesley	-12.0984
▁therapy	-12.0984
▁Chiba	-12.0984
▁revolving	-12.0984
▁anchor	-12.0984
▁Barbra	-12.0985
▁garage	-12.0985
▁underdeveloped	-12.0985
▁WWE	-12.0986
▁Norton	-12.0986
▁Clay	-12.0987
▁Fury	-12.0988
▁rail	-12.0988
▁Travolta	-12.0989
▁halt	-12.0989
▁Forrest	-12.099
▁Listen	-12.0991
▁volunteer	-12.0992
▁Dante	-12.0993
▁Sammo	-12.0993
▁policemen	-12.0993
▁Kathleen	-12.0994
▁Duff	-12.0994
LES	-12.0995
▁minority	-12.0995
▁letdown	-12.0996
▁plead	-12.0996
ippy	-12.0997
▁courtes	-12.1002
▁Late	-12.1002
▁Ironically	-12.1004
▁Blanc	-12.1005
▁chunk	-12.1005
▁Creature	-12.1008
▁Vic	-12.1009
▁downward	-12.1013
ULL	-12.1014
▁pink	-12.1015
▁relaxed	-12.1017
▁texture	-12.1018
EV	-12.1019
▁awakening	-12.1019
▁Meet	-12.1021
▁sibling	-12.1022
cia	-12.1022
▁consequence	-12.1023
▁refugee	-12.1027
▁factual	-12.1029
▁Butch	-12.1032
▁sexist	-12.1036
▁cooking	-12.1037
▁accidental	-12.1038
▁linked	-12.104
▁gathering	-12.1042
▁Pass	-12.1052
natured	-12.1056
▁cad	-12.1059
▁apes	-12.106
▁cheering	-12.1061
▁hippies	-12.1064
ulk	-12.1065
▁Fan	-12.1066
▁slug	-12.1068
Hi	-12.1069
▁yo	-12.1072
ssie	-12.1078
▁Reno	-12.1081
▁26	-12.1082
▁targeted	-12.1083
Up	-12.1086
▁heights	-12.1089
seat	-12.1089
▁witnessing	-12.1092
▁extract	-12.1093
!!)	-12.1093
▁dumber	-12.1099
▁Babe	-12.1102
▁Lil	-12.1108
▁sang	-12.1111
Note	-12.1113
▁seal	-12.1113
▁terrorize	-12.112
escent	-12.1123
▁pushe	-12.1124
▁Lon	-12.1126
▁nit	-12.1132
▁anytime	-12.1135
▁spoiling	-12.1138
▁dreamy	-12.1142
riot	-12.1145
▁Loved	-12.1149
▁surf	-12.1155
▁robbers	-12.116
▁chops	-12.116
▁shocker	-12.1162
pieces	-12.1165
alien	-12.1166
▁ignor	-12.1177
▁View	-12.1178
Angel	-12.1184
mania	-12.1184
▁counting	-12.1184
Plot	-12.1187
loving	-12.1187
girlfriend	-12.1187
dancing	-12.1187
Jeff	-12.1188
Play	-12.119
loved	-12.119
▁integra	-12.1191
Young	-12.1191
Full	-12.1191
small	-12.1194
▁Pop	-12.1197
▁sap	-12.1198
Mark	-12.1199
Acting	-12.1201
eena	-12.1203
▁drown	-12.1203
▁hon	-12.1204
▁slower	-12.1206
Highly	-12.121
hhh	-12.1213
▁judgement	-12.1216
▁Blu	-12.1217
talking	-12.122
friendly	-12.1226
▁exhaust	-12.1228
▁acclaim	-12.1229
▁preced	-12.1229
▁fortunate	-12.1231
▁immense	-12.1231
▁proclaim	-12.1237
ERO	-12.1241
▁orchestra	-12.1243
▁aristocrat	-12.1244
▁HOW	-12.1246
▁micro	-12.1246
▁Peckinpah	-12.1247
phobia	-12.1247
▁1934	-12.1247
▁Beetle	-12.1247
▁Bogdanovich	-12.1247
▁Culkin	-12.1247
▁Cunningham	-12.1247
▁Duchovny	-12.1247
▁Dwight	-12.1247
▁Farnsworth	-12.1247
▁Grendel	-12.1247
▁HUGE	-12.1247
▁Incredible	-12.1247
▁Irving	-12.1247
▁Kusturica	-12.1247
▁Plummer	-12.1247
▁Sorvino	-12.1247
▁Vaughn	-12.1247
▁ambiance	-12.1247
▁conceit	-12.1247
▁confined	-12.1247
▁elicit	-12.1247
▁facility	-12.1247
▁henchmen	-12.1247
▁hollywood	-12.1247
▁inclined	-12.1247
▁librarian	-12.1247
▁nightmarish	-12.1247
▁overwrought	-12.1247
▁pupil	-12.1247
▁quantum	-12.1247
▁radiation	-12.1247
▁razor	-12.1247
▁scheming	-12.1247
▁sergeant	-12.1247
▁spectator	-12.1247
▁submarine	-12.1247
▁vigilante	-12.1247
▁Northern	-12.1247
▁Randall	-12.1247
▁spouse	-12.1247
▁serum	-12.1247
▁prologue	-12.1247
▁diversity	-12.1247
▁auteur	-12.1247
▁erupt	-12.1247
▁Ajay	-12.1247
▁MacMurray	-12.1247
▁Shannon	-12.1247
misunderstanding	-12.1247
▁Screenplay	-12.1247
▁Hayworth	-12.1247
▁overtones	-12.1247
▁Seuss	-12.1247
▁McDonald	-12.1247
▁array	-12.1247
▁cringing	-12.1247
▁Dahl	-12.1247
▁Shaggy	-12.1247
▁robbed	-12.1247
▁Midler	-12.1247
▁Malden	-12.1247
▁riff	-12.1247
▁beef	-12.1247
▁reign	-12.1247
▁singular	-12.1247
▁Archer	-12.1247
▁Cruella	-12.1247
▁MORE	-12.1248
▁jury	-12.1248
▁hallway	-12.1248
▁interplay	-12.1248
▁distinctive	-12.1248
▁shack	-12.1249
▁attendant	-12.1249
▁riddle	-12.1249
▁replacement	-12.1249
▁Manchu	-12.1249
▁apologize	-12.125
▁remainder	-12.125
▁missile	-12.125
▁Dunne	-12.1251
▁rivalry	-12.1251
▁instructor	-12.1251
▁Erika	-12.1252
Airplane	-12.1252
▁Blondell	-12.1253
▁seamless	-12.1253
▁Roach	-12.1253
▁forgiveness	-12.1254
▁Metal	-12.1255
▁sack	-12.1255
▁lightning	-12.1257
▁Caprica	-12.1257
▁Lola	-12.1258
▁Extreme	-12.1259
▁Gershwin	-12.1259
▁hopeful	-12.1259
▁swell	-12.1261
▁Double	-12.1264
ipul	-12.1265
▁Nope	-12.127
▁inserted	-12.1273
▁crosses	-12.1274
▁reported	-12.1274
▁wartime	-12.1278
▁evokes	-12.1281
▁enormously	-12.1284
▁predicted	-12.1285
ender	-12.1286
iya	-12.1291
▁finishes	-12.1291
angle	-12.1293
▁Basic	-12.1298
▁Jew	-12.1298
▁swinging	-12.1301
hen	-12.1301
rising	-12.1301
▁Hou	-12.1302
▁integrate	-12.1303
▁switching	-12.1306
▁complained	-12.1311
▁epitom	-12.1316
tomic	-12.1318
▁outcast	-12.1322
▁magically	-12.1323
▁caper	-12.1325
▁Tall	-12.1326
▁Demons	-12.1329
▁bombed	-12.1332
▁chop	-12.1336
▁laying	-12.1341
▁pic	-12.1342
▁holy	-12.1344
▁Capt	-12.135
▁27	-12.135
Neal	-12.136
▁shaped	-12.1361
VE	-12.1363
▁awarded	-12.137
▁crossed	-12.1373
gna	-12.1375
EEN	-12.1379
pressed	-12.138
▁damned	-12.1395
100	-12.1396
cula	-12.1398
witted	-12.1402
▁Moran	-12.1408
▁impose	-12.1411
aux	-12.1416
▁helm	-12.1417
▁Stra	-12.1421
▁cent	-12.1423
97	-12.1425
▁talkie	-12.1428
Cat	-12.1434
▁cram	-12.1438
▁200	-12.1446
related	-12.1454
▁battl	-12.1455
claim	-12.1456
wrenching	-12.1456
Citizen	-12.1456
should	-12.1457
pathetic	-12.1457
know	-12.1458
social	-12.1458
Scream	-12.1458
osi	-12.1461
▁bomber	-12.1461
cycle	-12.1461
better	-12.1462
around	-12.1465
Plan	-12.1467
walker	-12.1471
exist	-12.1474
▁NE	-12.1475
▁goo	-12.1487
garde	-12.1487
▁suggesting	-12.1495
▁construct	-12.1497
stock	-12.1497
▁stag	-12.1498
▁perceive	-12.15
▁convert	-12.15
cold	-12.15
▁Nora	-12.1506
▁suburb	-12.1515
mac	-12.1516
▁convention	-12.1517
▁Lubitsch	-12.1517
▁unsuccessful	-12.1517
Survivor	-12.1517
▁1982	-12.1517
▁Amrita	-12.1517
▁Berenger	-12.1517
▁Dukakis	-12.1517
▁Experiment	-12.1517
▁Lombard	-12.1517
▁Massey	-12.1517
▁Oprah	-12.1517
▁Regardless	-12.1517
▁Society	-12.1517
▁Ursula	-12.1517
▁brunette	-12.1517
▁cohesive	-12.1517
▁conceal	-12.1517
▁economy	-12.1517
▁endeavor	-12.1517
▁frozen	-12.1517
▁gadget	-12.1517
▁hypnotic	-12.1517
▁irrational	-12.1517
▁manufactur	-12.1517
▁mediocrity	-12.1517
▁melancholy	-12.1517
▁murky	-12.1517
▁nemesis	-12.1517
▁pompous	-12.1517
▁rebellion	-12.1517
▁rehearsal	-12.1517
▁rookie	-12.1517
▁squirm	-12.1517
▁strung	-12.1517
▁stubborn	-12.1517
▁Chandler	-12.1517
▁Dillon	-12.1517
▁Owl	-12.1517
▁Rosario	-12.1517
▁Truth	-12.1517
▁ancestor	-12.1517
▁manifest	-12.1517
▁rampant	-12.1517
▁shrill	-12.1517
▁staple	-12.1517
▁Blob	-12.1517
▁LDS	-12.1517
▁Weaver	-12.1517
▁captive	-12.1517
▁Holland	-12.1517
▁Extras	-12.1517
▁sparse	-12.1517
▁greet	-12.1517
▁tolerance	-12.1517
▁reckless	-12.1517
▁Granger	-12.1517
▁dopey	-12.1517
▁bounce	-12.1517
▁squeeze	-12.1517
▁censorship	-12.1517
▁1998	-12.1517
▁stadium	-12.1517
▁supermarket	-12.1517
Taxi	-12.1517
▁resonate	-12.1517
▁Tiny	-12.1518
▁uncertain	-12.1518
▁padding	-12.1518
▁compassionate	-12.1518
▁gruff	-12.1518
▁surgeon	-12.1518
▁Finch	-12.1518
▁predictably	-12.1518
▁Levin	-12.1518
▁Barney	-12.1518
▁Brazilian	-12.1518
▁Jodie	-12.1518
▁Serbian	-12.1518
▁commendable	-12.1519
▁drawback	-12.1519
▁Reese	-12.1519
▁identified	-12.1519
▁Blank	-12.152
digger	-12.152
▁Diego	-12.152
▁data	-12.152
▁grating	-12.1521
▁Hoover	-12.1522
▁reminding	-12.1522
▁Colman	-12.1524
▁Vienna	-12.1525
▁believer	-12.1526
▁effortlessly	-12.1527
▁abundance	-12.1528
▁Often	-12.1528
▁controlling	-12.1528
elah	-12.1529
▁Nana	-12.153
▁loner	-12.1531
▁Totally	-12.1531
Boy	-12.1532
▁unjust	-12.1532
▁deepest	-12.1532
▁Nine	-12.1532
▁ironically	-12.1533
izek	-12.1535
Far	-12.1535
▁DAY	-12.1536
▁torch	-12.1536
▁Cypher	-12.1536
▁Thelma	-12.1536
Scoop	-12.1538
▁tacked	-12.1538
▁Door	-12.1538
▁Penny	-12.1539
▁collar	-12.1539
▁demean	-12.154
▁plod	-12.154
▁gown	-12.1541
▁reluctantly	-12.1542
▁lad	-12.1542
▁Crowe	-12.1543
TRA	-12.1545
▁preaching	-12.1548
▁transported	-12.1549
Liv	-12.1549
▁wherever	-12.1553
▁Alive	-12.1557
▁premiered	-12.1559
▁subsequently	-12.156
▁faded	-12.1561
EAT	-12.1563
▁Jackman	-12.1566
▁hunted	-12.1575
▁bashing	-12.1575
TEN	-12.1577
▁lick	-12.1577
▁scratching	-12.1577
buster	-12.1581
▁affecting	-12.1582
▁billing	-12.1597
llied	-12.1597
ndra	-12.1611
▁Muni	-12.1612
▁palm	-12.1617
▁solved	-12.1623
beth	-12.1623
▁paired	-12.1627
?????	-12.163
▁sane	-12.1632
gli	-12.1638
UP	-12.1644
▁Due	-12.1645
▁Hark	-12.1651
▁bearing	-12.1652
.........	-12.1657
EVER	-12.1665
▁weirdo	-12.1667
▁lighten	-12.1672
May	-12.1678
▁Within	-12.168
mail	-12.1684
▁instincts	-12.1684
half	-12.1703
▁talky	-12.1716
Marc	-12.1726
▁Lambert	-12.1729
developed	-12.173
Definitely	-12.1734
fresh	-12.1735
tube	-12.1735
control	-12.1736
Tony	-12.1737
through	-12.1738
young	-12.1739
elma	-12.1743
▁Franc	-12.1746
wy	-12.1749
Kate	-12.1752
▁undergo	-12.1758
Show	-12.1761
▁refus	-12.1764
laden	-12.1765
None	-12.1766
named	-12.1773
▁enlist	-12.1778
▁permanent	-12.1779
▁Mile	-12.178
▁dictat	-12.179
▁blur	-12.1791
▁Twin	-12.1792
semblance	-12.1792
▁incidental	-12.1792
▁Romania	-12.1792
▁Republic	-12.1793
▁escalat	-12.1795
▁succumb	-12.1795
▁swift	-12.1795
▁1963	-12.1795
▁1967	-12.1795
▁ANYTHING	-12.1795
▁Bishop	-12.1795
▁Bronte	-12.1795
▁Burgess	-12.1795
▁Fassbinder	-12.1795
▁Forsythe	-12.1795
▁Hilton	-12.1795
▁Lansbury	-12.1795
▁McDermott	-12.1795
▁Mummy	-12.1795
▁Olympic	-12.1795
▁Pavarotti	-12.1795
▁STORY	-12.1795
▁chaotic	-12.1795
▁clarity	-12.1795
▁devotion	-12.1795
▁escort	-12.1795
▁exaggeration	-12.1795
▁homicidal	-12.1795
▁inadvertently	-12.1795
▁maximum	-12.1795
▁occurrence	-12.1795
▁slept	-12.1795
▁superfluous	-12.1795
▁swamp	-12.1795
▁uninspiring	-12.1795
▁unnecessarily	-12.1795
▁incarnation	-12.1795
▁independence	-12.1795
▁smirk	-12.1795
▁tedium	-12.1795
▁Keitel	-12.1795
▁implies	-12.1795
▁Square	-12.1795
▁Travis	-12.1795
▁Sykes	-12.1795
Typical	-12.1795
▁Lorre	-12.1795
▁Tsui	-12.1795
▁Valerie	-12.1795
▁dragging	-12.1795
▁Farrah	-12.1795
▁Winston	-12.1795
▁predictability	-12.1795
▁tissue	-12.1795
▁Kells	-12.1795
▁COULD	-12.1795
▁purse	-12.1795
▁Barnes	-12.1795
▁helmet	-12.1795
▁rogue	-12.1795
▁scarier	-12.1795
▁skimp	-12.1795
▁apple	-12.1795
▁aircraft	-12.1796
▁stoop	-12.1796
imdb	-12.1796
▁Jules	-12.1796
▁Gunga	-12.1796
▁motif	-12.1797
▁keyboard	-12.1797
▁establishment	-12.1797
aaaa	-12.1797
▁POW	-12.1798
▁laser	-12.1798
▁waist	-12.1799
▁Sammi	-12.18
▁Meek	-12.1801
▁convenient	-12.1801
▁consumer	-12.1801
▁Patty	-12.1801
▁Bunch	-12.1801
▁protection	-12.1802
▁recreation	-12.1802
▁downbeat	-12.1804
▁sarcasm	-12.1804
▁hometown	-12.1804
▁Della	-12.1805
▁MAD	-12.1807
▁Criminal	-12.1808
▁Surprisingly	-12.1808
▁mindset	-12.1808
▁deck	-12.1809
▁Sort	-12.1809
▁Finn	-12.181
▁Lars	-12.181
▁beforehand	-12.1812
▁Terminator	-12.1813
igi	-12.1815
▁wiped	-12.1816
▁Fantastic	-12.1816
▁fairness	-12.1818
▁Whereas	-12.1818
▁Mostel	-12.1818
▁Sandy	-12.1819
hate	-12.182
▁flower	-12.182
▁crooked	-12.1822
▁succession	-12.1824
▁Cabin	-12.1825
▁Dai	-12.1826
▁Mayor	-12.1827
▁restraint	-12.1828
▁overboard	-12.1829
▁severed	-12.1834
▁deter	-12.1835
▁lawn	-12.184
Yankee	-12.1842
▁fold	-12.1842
▁PRI	-12.1844
▁Stay	-12.1845
▁continent	-12.1845
▁steaming	-12.1846
▁crushed	-12.185
▁stoned	-12.1852
▁colleague	-12.1855
uction	-12.1856
aime	-12.1857
doing	-12.186
(!)	-12.186
▁boobs	-12.1861
TING	-12.1865
▁advised	-12.1865
▁tricked	-12.1867
▁sporting	-12.1867
▁practic	-12.1869
▁Coast	-12.187
▁clad	-12.1875
▁ridden	-12.1883
change	-12.1884
▁attain	-12.1886
▁Solo	-12.1887
▁outset	-12.189
Anne	-12.1891
▁fetched	-12.1898
▁PS	-12.1904
▁Brazil	-12.1917
▁dock	-12.1919
▁willingly	-12.1921
▁culminat	-12.1924
▁Rip	-12.194
hill	-12.194
24	-12.1945
▁Spoiler	-12.1951
thor	-12.1958
▁questioning	-12.1963
▁excels	-12.1972
jun	-12.1981
▁Nic	-12.1983
▁mumbl	-12.1983
hei	-12.1985
▁counterparts	-12.1986
ppe	-12.1996
▁intelligently	-12.2005
lost	-12.2009
▁Leno	-12.2012
▁Ava	-12.2014
Alien	-12.2019
albeit	-12.202
Victor	-12.202
Brad	-12.2021
Toole	-12.2026
Down	-12.2026
▁HIS	-12.2032
storm	-12.2039
▁openly	-12.2045
▁contend	-12.205
▁figur	-12.205
leg	-12.2052
fighting	-12.2055
▁unleash	-12.2062
▁Fine	-12.2062
▁Class	-12.2064
▁prompt	-12.2065
▁irre	-12.2069
▁burnt	-12.2073
▁Kerr	-12.2076
esh	-12.208
▁Apple	-12.208
Kalifornia	-12.208
Seinfeld	-12.208
▁Chloe	-12.208
▁Christensen	-12.208
▁Connolly	-12.208
▁Crenna	-12.208
▁Grudge	-12.208
▁Hostel	-12.208
▁Jungle	-12.208
▁Rodriguez	-12.208
▁Sylvia	-12.208
▁believability	-12.208
▁categories	-12.208
▁cinematographic	-12.208
▁conniving	-12.208
▁dispatch	-12.208
▁flamboyant	-12.208
▁inconsistencies	-12.208
▁infinitely	-12.208
▁predicament	-12.208
▁signature	-12.208
▁snooz	-12.208
▁sociopath	-12.208
▁spaghetti	-12.208
▁stalwart	-12.208
▁surrender	-12.208
▁wizard	-12.208
▁Fawcett	-12.208
▁Scorpion	-12.208
▁Shield	-12.208
▁arriving	-12.208
▁balloon	-12.208
▁bartender	-12.208
▁corridor	-12.208
▁frail	-12.208
▁outburst	-12.208
▁reception	-12.208
▁spoon	-12.208
▁yarn	-12.208
▁Future	-12.208
▁Rudd	-12.208
▁dvd	-12.208
▁devour	-12.208
esteem	-12.208
▁Additionally	-12.208
▁Izzard	-12.208
▁sassy	-12.208
▁Internet	-12.2081
▁nominee	-12.2081
▁programming	-12.2081
▁1975	-12.2081
▁upbringing	-12.2081
▁gallery	-12.2081
Certain	-12.2081
▁Stefan	-12.2081
▁stirring	-12.2081
▁trumpet	-12.2081
▁Durbin	-12.2081
▁rousing	-12.2081
▁Monica	-12.2081
▁straw	-12.2081
▁dawn	-12.2081
▁misfire	-12.2081
▁breakthrough	-12.2081
▁digress	-12.2081
▁arrangement	-12.2081
▁thunder	-12.2081
▁uneasy	-12.2081
▁hostile	-12.2082
▁penned	-12.2082
▁Monday	-12.2082
▁archive	-12.2082
▁Samuel	-12.2082
▁Emmy	-12.2082
▁email	-12.2082
▁Honor	-12.2082
▁Dolls	-12.2083
▁stoic	-12.2083
▁Redford	-12.2083
▁aspire	-12.2083
▁Cheung	-12.2083
▁slavery	-12.2083
▁crass	-12.2083
Mac	-12.2084
▁Slater	-12.2084
▁Report	-12.2084
▁Katie	-12.2084
▁ninety	-12.2084
▁shave	-12.2084
▁decoration	-12.2085
▁Person	-12.2085
▁nonexistent	-12.2086
budding	-12.2086
▁chant	-12.2086
▁Benny	-12.2087
▁supportive	-12.2088
▁Penelope	-12.2088
▁Ride	-12.2088
▁passive	-12.2088
▁bearable	-12.2089
▁camping	-12.2089
▁motivated	-12.209
▁flush	-12.209
laced	-12.209
▁Pin	-12.209
▁preacher	-12.209
▁batter	-12.2091
▁coverage	-12.2092
▁contradiction	-12.2092
▁Puri	-12.2094
▁Rice	-12.2095
▁penis	-12.2096
▁'90	-12.2096
▁Mandy	-12.2096
▁Phantasm	-12.2099
▁interrupted	-12.2103
▁arouse	-12.2104
▁lament	-12.2105
▁highway	-12.2107
▁destructive	-12.2112
▁sweeping	-12.2112
▁upbeat	-12.2113
▁Eight	-12.2113
▁Scarface	-12.2113
▁confirmed	-12.2117
▁Kiss	-12.2117
dark	-12.2118
▁Brand	-12.2122
nef	-12.2123
▁Wei	-12.2128
▁Forest	-12.2132
Didn	-12.2134
plex	-12.2138
tories	-12.2143
tails	-12.2143
▁prof	-12.2147
lack	-12.215
▁coaster	-12.2151
▁HAS	-12.2152
▁Hmmm	-12.2153
nut	-12.2155
95	-12.2155
▁crashed	-12.2155
▁ruled	-12.2156
Being	-12.2157
▁climbing	-12.216
▁Scarlett	-12.2161
▁worrying	-12.2175
LESS	-12.2179
▁commanding	-12.2182
▁defending	-12.2184
rier	-12.2185
▁spelled	-12.2185
▁numbing	-12.2187
▁Towers	-12.219
▁poet	-12.22
▁ongoing	-12.2203
61	-12.2213
Mister	-12.2219
▁hallucinations	-12.2224
hmm	-12.2235
▁Harlin	-12.2235
▁careless	-12.2252
DO	-12.2253
▁rag	-12.2256
pelled	-12.2257
hear	-12.226
▁contemplate	-12.2261
▁idol	-12.2264
ancy	-12.2268
Part	-12.2269
▁pluck	-12.2274
▁slam	-12.2277
Pet	-12.2295
either	-12.23
serious	-12.23
titude	-12.2311
defin	-12.2314
Mystery	-12.2314
Sullivan	-12.2314
dropping	-12.2314
Barbara	-12.2314
cinema	-12.2315
Grade	-12.2315
▁FO	-12.2315
Danny	-12.2315
scope	-12.2316
cult	-12.2317
black	-12.2318
▁Marcel	-12.2319
Robin	-12.232
whatever	-12.2321
remember	-12.233
packed	-12.233
Dick	-12.2333
cover	-12.2347
▁impro	-12.2352
neous	-12.2353
apart	-12.2356
▁pervert	-12.2357
URE	-12.2362
▁Mona	-12.2365
▁Coop	-12.2371
▁sync	-12.2373
▁Holm	-12.2373
▁Caesar	-12.2374
▁Crouse	-12.2374
▁Kaufman	-12.2374
▁Lommel	-12.2374
▁Marjorie	-12.2374
Between	-12.2374
Olympia	-12.2374
Yugoslav	-12.2374
▁ALERT	-12.2374
▁Agatha	-12.2374
▁Aiello	-12.2374
▁Caruso	-12.2374
▁Chainsaw	-12.2374
▁Government	-12.2374
▁JUST	-12.2374
▁Mastroianni	-12.2374
▁McDowell	-12.2374
▁Melody	-12.2374
▁Monroe	-12.2374
▁Public	-12.2374
▁Rizzo	-12.2374
▁Schwarzenegger	-12.2374
▁Witherspoon	-12.2374
▁academic	-12.2374
▁applause	-12.2374
▁applied	-12.2374
▁autobiography	-12.2374
▁cheesiness	-12.2374
▁decency	-12.2374
▁excellence	-12.2374
▁fodder	-12.2374
▁impersonation	-12.2374
▁implement	-12.2374
▁influential	-12.2374
▁nifty	-12.2374
▁pivotal	-12.2374
▁placing	-12.2374
▁pursuing	-12.2374
▁ravishing	-12.2374
▁reincarnation	-12.2374
▁sophistication	-12.2374
▁torturing	-12.2374
▁tribulation	-12.2374
▁overshadowed	-12.2374
▁reckon	-12.2374
▁Buffy	-12.2374
▁drool	-12.2374
▁gently	-12.2374
▁shelves	-12.2374
stricken	-12.2374
▁Bolivia	-12.2374
▁Dyke	-12.2374
▁Ledger	-12.2374
▁foreshadow	-12.2374
▁election	-12.2375
▁skirt	-12.2375
▁thwart	-12.2375
▁detect	-12.2375
▁Gross	-12.2375
▁divine	-12.2375
▁Irwin	-12.2375
▁elected	-12.2375
▁Krabb	-12.2375
▁Lanza	-12.2375
Nonetheless	-12.2375
▁reruns	-12.2375
▁Guine	-12.2375
▁SHOW	-12.2375
▁Battlestar	-12.2375
▁gaze	-12.2375
▁Fanning	-12.2375
▁Europa	-12.2375
▁terminal	-12.2375
▁fiery	-12.2375
▁concentration	-12.2375
▁diving	-12.2375
▁Hanzo	-12.2375
▁adept	-12.2375
▁Chevy	-12.2376
▁burial	-12.2376
▁idealistic	-12.2376
▁jewelry	-12.2376
▁Govinda	-12.2376
▁Cannes	-12.2376
▁undercover	-12.2377
▁Triad	-12.2377
▁requirement	-12.2377
▁Daddy	-12.2377
▁punchline	-12.2377
▁adultery	-12.2377
▁flock	-12.2378
▁bondage	-12.2378
▁hairstyle	-12.2378
▁Hugo	-12.2378
▁Sabu	-12.2378
▁rewind	-12.2378
▁comparable	-12.2379
▁standpoint	-12.2379
▁Pride	-12.2379
▁bullies	-12.2379
▁Berry	-12.2379
▁AWAY	-12.2379
▁grandma	-12.238
▁marine	-12.238
▁max	-12.238
▁stem	-12.238
warming	-12.238
▁consumed	-12.2382
▁plantation	-12.2382
▁Coleman	-12.2382
▁Palestinian	-12.2383
▁distinction	-12.2383
▁tailor	-12.2384
▁Mid	-12.2384
▁spotted	-12.2384
ogle	-12.2384
▁Particularly	-12.2386
▁Askey	-12.2388
▁Lindy	-12.2388
▁starlet	-12.2388
▁Toward	-12.239
▁varying	-12.2391
▁Peggy	-12.2393
▁billion	-12.2393
▁armor	-12.2397
▁revolting	-12.2397
▁whim	-12.2397
ulous	-12.2397
▁golf	-12.2398
▁Shop	-12.2399
▁Belle	-12.24
▁expanded	-12.2401
▁Faye	-12.2402
▁occupied	-12.2403
▁Jaws	-12.2403
▁puke	-12.2403
▁betrayed	-12.2405
▁juice	-12.2406
▁NIGHT	-12.2406
▁bitchy	-12.2407
▁arty	-12.241
▁lingering	-12.2413
numbers	-12.2414
▁Dear	-12.2417
▁adequately	-12.2417
▁gathered	-12.2422
liness	-12.2422
Jon	-12.2422
▁slot	-12.2423
Mal	-12.2424
synch	-12.2425
▁encouraged	-12.2427
▁Bean	-12.2432
▁seriousness	-12.2432
▁Nell	-12.2433
drive	-12.2436
▁hitch	-12.2438
ACK	-12.2444
▁Musical	-12.2446
▁Pure	-12.2447
▁proudly	-12.2453
into	-12.2454
Corky	-12.2459
▁mono	-12.2468
01	-12.2473
▁til	-12.2476
▁burden	-12.2477
▁HATE	-12.2479
▁plotline	-12.248
Dir	-12.248
▁deservedly	-12.2488
fli	-12.249
ario	-12.249
rank	-12.251
▁CON	-12.2512
▁civilians	-12.2515
▁ghostly	-12.2521
▁Ally	-12.2521
▁bid	-12.2522
▁peers	-12.2527
▁Ji	-12.253
ilda	-12.2532
alth	-12.2533
uza	-12.2545
lag	-12.2551
▁Lau	-12.2551
▁transferr	-12.2569
▁Para	-12.2602
▁Wall	-12.2603
rgen	-12.261
▁DU	-12.2611
▁richly	-12.2614
position	-12.2616
version	-12.2617
▁Lan	-12.2617
Hamlet	-12.2617
Next	-12.2617
Halloween	-12.2617
Tarzan	-12.2617
appreciated	-12.2617
secret	-12.2617
Again	-12.2617
apparently	-12.2617
Adam	-12.2618
depend	-12.2618
birth	-12.2618
sometimes	-12.2618
Wild	-12.2618
Alice	-12.2619
Alex	-12.2619
Instead	-12.262
▁cube	-12.262
Code	-12.2623
▁Pam	-12.2624
Someone	-12.2625
reason	-12.2625
home	-12.263
Rex	-12.2637
rating	-12.2639
erior	-12.2639
Carl	-12.2644
Gary	-12.2644
pun	-12.2651
GH	-12.2659
▁distort	-12.2659
▁polish	-12.2659
▁recurr	-12.266
▁qualifie	-12.266
▁acquire	-12.266
▁locate	-12.266
need	-12.2665
ista	-12.2671
▁prosecut	-12.2673
▁intellect	-12.2673
▁Vig	-12.2674
▁install	-12.2677
▁Jabba	-12.2677
▁Violence	-12.2677
▁haphazard	-12.2677
Gentleman	-12.2677
atoichi	-12.2677
▁1943	-12.2677
▁1951	-12.2677
▁Afghanistan	-12.2677
▁Azumi	-12.2677
▁Dillinger	-12.2677
▁Eleanor	-12.2677
▁Feature	-12.2677
▁Fleming	-12.2677
▁Gretchen	-12.2677
▁Henderson	-12.2677
▁Melbourne	-12.2677
▁Newcombe	-12.2677
▁Theodore	-12.2677
▁american	-12.2677
▁chimney	-12.2677
▁dedication	-12.2677
▁framing	-12.2677
▁frenetic	-12.2677
▁knack	-12.2677
▁neutral	-12.2677
▁paragraph	-12.2677
▁purple	-12.2677
▁sensibility	-12.2677
▁skeleton	-12.2677
▁visceral	-12.2677
Bonanza	-12.2677
▁Glenda	-12.2677
▁deputy	-12.2677
▁refund	-12.2677
▁tattoo	-12.2677
▁Neeson	-12.2677
▁chalk	-12.2677
▁henchman	-12.2677
▁temptation	-12.2677
▁/>9/10	-12.2678
▁CBC	-12.2678
▁Iturbi	-12.2678
▁padded	-12.2678
▁Parents	-12.2678
▁Sassy	-12.2678
▁abroad	-12.2678
▁dodgy	-12.2678
▁Teenage	-12.2678
▁Ladies	-12.2678
▁voodoo	-12.2678
▁column	-12.2678
▁Frontier	-12.2678
▁reprise	-12.2678
▁prostitution	-12.2678
▁Kramer	-12.2678
▁championship	-12.2678
▁perversion	-12.2678
▁Minute	-12.2678
▁animators	-12.2678
▁uptight	-12.2678
▁Hayward	-12.2678
▁0/10	-12.2678
[...]
